{
  "version": "1.0",
  "truncation": null,
  "padding": null,
  "added_tokens": [
    {
      "id": 0,
      "content": "<bos>",
      "single_word": false,
      "lstrip": false,
      "rstrip": false,
      "normalized": false,
      "special": true
    },
    {
      "id": 1,
      "content": "<sep>",
      "single_word": false,
      "lstrip": false,
      "rstrip": false,
      "normalized": false,
      "special": true
    },
    {
      "id": 2,
      "content": "<pad>",
      "single_word": false,
      "lstrip": false,
      "rstrip": false,
      "normalized": false,
      "special": true
    },
    {
      "id": 3,
      "content": "<mask>",
      "single_word": false,
      "lstrip": false,
      "rstrip": false,
      "normalized": false,
      "special": true
    },
    {
      "id": 4,
      "content": "<unk>",
      "single_word": false,
      "lstrip": false,
      "rstrip": false,
      "normalized": false,
      "special": true
    },
    {
      "id": 5,
      "content": "<formula>",
      "single_word": false,
      "lstrip": false,
      "rstrip": false,
      "normalized": false,
      "special": true
    },
    {
      "id": 6,
      "content": "<smiles>",
      "single_word": false,
      "lstrip": false,
      "rstrip": false,
      "normalized": false,
      "special": true
    },
    {
      "id": 7,
      "content": "<iupac>",
      "single_word": false,
      "lstrip": false,
      "rstrip": false,
      "normalized": false,
      "special": true
    },
    {
      "id": 8,
      "content": "<inchi>",
      "single_word": false,
      "lstrip": false,
      "rstrip": false,
      "normalized": false,
      "special": true
    },
    {
      "id": 9,
      "content": "<selfies>",
      "single_word": false,
      "lstrip": false,
      "rstrip": false,
      "normalized": false,
      "special": true
    },
    {
      "id": 10,
      "content": "<polymer_spg>",
      "single_word": false,
      "lstrip": false,
      "rstrip": false,
      "normalized": false,
      "special": true
    },
    {
      "id": 11,
      "content": "<formulation_start>",
      "single_word": false,
      "lstrip": false,
      "rstrip": false,
      "normalized": false,
      "special": true
    },
    {
      "id": 12,
      "content": "<formulation_end>",
      "single_word": false,
      "lstrip": false,
      "rstrip": false,
      "normalized": false,
      "special": true
    },
    {
      "id": 13,
      "content": "InChI=",
      "single_word": false,
      "lstrip": false,
      "rstrip": false,
      "normalized": false,
      "special": true
    },
    {
      "id": 14,
      "content": ",",
      "single_word": false,
      "lstrip": false,
      "rstrip": false,
      "normalized": false,
      "special": true
    },
    {
      "id": 15,
      "content": "-",
      "single_word": false,
      "lstrip": false,
      "rstrip": false,
      "normalized": false,
      "special": true
    },
    {
      "id": 16,
      "content": "/",
      "single_word": false,
      "lstrip": false,
      "rstrip": false,
      "normalized": false,
      "special": true
    },
    {
      "id": 17,
      "content": "?",
      "single_word": false,
      "lstrip": false,
      "rstrip": false,
      "normalized": false,
      "special": true
    },
    {
      "id": 18,
      "content": "(",
      "single_word": false,
      "lstrip": false,
      "rstrip": false,
      "normalized": false,
      "special": true
    },
    {
      "id": 19,
      "content": ")",
      "single_word": false,
      "lstrip": false,
      "rstrip": false,
      "normalized": false,
      "special": true
    },
    {
      "id": 20,
      "content": "->",
      "single_word": false,
      "lstrip": false,
      "rstrip": false,
      "normalized": false,
      "special": true
    }
  ],
  "normalizer": null,
  "pre_tokenizer": {
    "type": "Whitespace"
  },
  "post_processor": {
    "type": "TemplateProcessing",
    "single": [
      {
        "SpecialToken": {
          "id": "<bos>",
          "type_id": 0
        }
      },
      {
        "Sequence": {
          "id": "A",
          "type_id": 0
        }
      },
      {
        "SpecialToken": {
          "id": "<sep>",
          "type_id": 0
        }
      }
    ],
    "pair": [
      {
        "SpecialToken": {
          "id": "<bos>",
          "type_id": 0
        }
      },
      {
        "Sequence": {
          "id": "A",
          "type_id": 0
        }
      },
      {
        "SpecialToken": {
          "id": "<sep>",
          "type_id": 0
        }
      },
      {
        "Sequence": {
          "id": "B",
          "type_id": 1
        }
      },
      {
        "SpecialToken": {
          "id": "<sep>",
          "type_id": 1
        }
      }
    ],
    "special_tokens": {
      "<bos>": {
        "id": "<bos>",
        "ids": [
          0
        ],
        "tokens": [
          "<bos>"
        ]
      },
      "<sep>": {
        "id": "<sep>",
        "ids": [
          1
        ],
        "tokens": [
          "<sep>"
        ]
      }
    }
  },
  "decoder": null,
  "model": {
    "type": "BPE",
    "dropout": null,
    "unk_token": "<unk>",
    "continuing_subword_prefix": null,
    "end_of_word_suffix": null,
    "fuse_unk": false,
    "byte_fallback": false,
    "ignore_merges": false,
    "vocab": {
      "<bos>": 0,
      "<sep>": 1,
      "<pad>": 2,
      "<mask>": 3,
      "<unk>": 4,
      "<formula>": 5,
      "<smiles>": 6,
      "<iupac>": 7,
      "<inchi>": 8,
      "<selfies>": 9,
      "<polymer_spg>": 10,
      "<formulation_start>": 11,
      "<formulation_end>": 12,
      "InChI=": 13,
      ",": 14,
      "-": 15,
      "/": 16,
      "?": 17,
      "(": 18,
      ")": 19,
      "->": 20,
      " ": 21,
      "\"": 22,
      "#": 23,
      "%": 24,
      "'": 25,
      "*": 26,
      "+": 27,
      ".": 28,
      "0": 29,
      "1": 30,
      "2": 31,
      "3": 32,
      "4": 33,
      "5": 34,
      "6": 35,
      "7": 36,
      "8": 37,
      "9": 38,
      ":": 39,
      ";": 40,
      "<": 41,
      "=": 42,
      ">": 43,
      "A": 44,
      "B": 45,
      "C": 46,
      "D": 47,
      "E": 48,
      "F": 49,
      "G": 50,
      "H": 51,
      "I": 52,
      "K": 53,
      "L": 54,
      "M": 55,
      "N": 56,
      "O": 57,
      "P": 58,
      "R": 59,
      "S": 60,
      "T": 61,
      "U": 62,
      "V": 63,
      "W": 64,
      "X": 65,
      "Y": 66,
      "Z": 67,
      "[": 68,
      "]": 69,
      "a": 70,
      "b": 71,
      "c": 72,
      "d": 73,
      "e": 74,
      "f": 75,
      "g": 76,
      "h": 77,
      "i": 78,
      "j": 79,
      "k": 80,
      "l": 81,
      "m": 82,
      "n": 83,
      "o": 84,
      "p": 85,
      "q": 86,
      "r": 87,
      "s": 88,
      "t": 89,
      "u": 90,
      "v": 91,
      "w": 92,
      "x": 93,
      "y": 94,
      "z": 95,
      "C]": 96,
      "[C]": 97,
      "1]": 98,
      "[=": 99,
      "an": 100,
      "ch": 101,
      "Br": 102,
      "anch": 103,
      "Branch": 104,
      "Branch1]": 105,
      "in": 106,
      "[=C]": 107,
      "Rin": 108,
      "Ring": 109,
      "[Ring": 110,
      "yl": 111,
      "[Ring1]": 112,
      "[Branch1]": 113,
      "N]": 114,
      "O]": 115,
      "2]": 116,
      "[N]": 117,
      "[=Branch1]": 118,
      "H2": 119,
      "th": 120,
      "13": 121,
      "12": 122,
      "14": 123,
      "11": 124,
      "10": 125,
      "eth": 126,
      "15": 127,
      "16": 128,
      "2-": 129,
      "17": 130,
      "18": 131,
      "[O]": 132,
      "Branch2]": 133,
      "ro": 134,
      "19": 135,
      "[=O]": 136,
      "ethyl": 137,
      "en": 138,
      "id": 139,
      "20": 140,
      "am": 141,
      "3-": 142,
      "4-": 143,
      "methyl": 144,
      "1S": 145,
      "H3": 146,
      "21": 147,
      "ox": 148,
      "[#": 149,
      "-2-": 150,
      "yl)": 151,
      "22": 152,
      "[Ring2]": 153,
      "c1": 154,
      "[Branch2]": 155,
      "*:": 156,
      "[*:": 157,
      "ph": 158,
      "23": 159,
      "1-": 160,
      "Cl": 161,
      "phen": 162,
      "24": 163,
      "yl]": 164,
      "amin": 165,
      "[=N]": 166,
      "25": 167,
      "[S": 168,
      "N2": 169,
      "26": 170,
      "di": 171,
      "[S]": 172,
      "amino": 173,
      "lo": 174,
      "O2": 175,
      "-3-": 176,
      "N-": 177,
      "N3": 178,
      "5-": 179,
      "ide": 180,
      "-1-": 181,
      "27": 182,
      "az": 183,
      "rop": 184,
      "ol": 185,
      "oxy": 186,
      "[#Branch1]": 187,
      "prop": 188,
      "-4-": 189,
      "28": 190,
      "O3": 191,
      "idin": 192,
      "[F": 193,
      "[F]": 194,
      "[*:1]": 195,
      "[*:2]": 196,
      "yr": 197,
      "amide": 198,
      "yd": 199,
      "hyd": 200,
      "ca": 201,
      "[=Branch2]": 202,
      "29": 203,
      "pyr": 204,
      "rb": 205,
      "carb": 206,
      "phenyl)": 207,
      "[Cl": 208,
      "hydro": 209,
      "[Cl]": 210,
      "on": 211,
      "30": 212,
      "[(": 213,
      "ac": 214,
      "2,": 215,
      "1,": 216,
      "ethoxy": 217,
      "ben": 218,
      "benz": 219,
      "chlo": 220,
      "1H3": 221,
      "N4": 222,
      "31": 223,
      "[#Branch2]": 224,
      "azol": 225,
      "O4": 226,
      "-N-": 227,
      "2H3": 228,
      "tr": 229,
      "32": 230,
      "[2-": 231,
      "propan": 232,
      "amino]": 233,
      "-5-": 234,
      "te": 235,
      "methoxy": 236,
      "6-": 237,
      "cy": 238,
      "ut": 239,
      "but": 240,
      "3,": 241,
      "lu": 242,
      "flu": 243,
      "fluo": 244,
      "33": 245,
      "clo": 246,
      "-1,": 247,
      "[#C]": 248,
      "ul": 249,
      "sul": 250,
      "sulf": 251,
      "cyclo": 252,
      "fluoro": 253,
      "carbox": 254,
      "oxo": 255,
      "1H": 256,
      "thi": 257,
      "[N": 258,
      "(2-": 259,
      "34": 260,
      "tri": 261,
      "(4-": 262,
      "h3": 263,
      "pi": 264,
      "C15": 265,
      "C14": 266,
      "[P": 267,
      "C16": 268,
      "chloro": 269,
      "methyl]": 270,
      "h2": 271,
      "et": 272,
      "pe": 273,
      "per": 274,
      "piper": 275,
      "[P]": 276,
      "35": 277,
      "acet": 278,
      "3H3": 279,
      "C13": 280,
      "h1": 281,
      "C17": 282,
      "[4-": 283,
      "h4": 284,
      "methyl)": 285,
      "36": 286,
      "dimethyl": 287,
      "ic": 288,
      "O5": 289,
      "acid": 290,
      "ic ": 291,
      "ic acid": 292,
      "one": 293,
      "C18": 294,
      "im": 295,
      "ent": 296,
      "pent": 297,
      "O-": 298,
      "N5": 299,
      "C12": 300,
      "(3-": 301,
      "[O-": 302,
      "he": 303,
      "idine": 304,
      "phenyl]": 305,
      "H20": 306,
      "ate": 307,
      "hydrox": 308,
      "-2-yl)": 309,
      "hydroxy": 310,
      "H22": 311,
      "H21": 312,
      "37": 313,
      "H19": 314,
      "C19": 315,
      "mo": 316,
      "carboxamide": 317,
      "phenyl": 318,
      "H23": 319,
      "[N+": 320,
      "ethyl]": 321,
      "benzo": 322,
      "H18": 323,
      "chlor": 324,
      "chloride": 325,
      "h5": 326,
      "-2-yl": 327,
      "pyrro": 328,
      "amino)": 329,
      "hydrochloride": 330,
      "H24": 331,
      "[3-": 332,
      "[=Ring": 333,
      "amine": 334,
      "s1": 335,
      "S2": 336,
      "38": 337,
      "ano": 338,
      "4,": 339,
      "ethan": 340,
      "pyrrol": 341,
      "[1-": 342,
      "-2-yl]": 343,
      "H17": 344,
      "C20": 345,
      "ene": 346,
      "hex": 347,
      "-6-": 348,
      "H]": 349,
      "[n": 350,
      "H25": 351,
      "sulfon": 352,
      "C11": 353,
      "[Br": 354,
      "H16": 355,
      "azin": 356,
      "[Br]": 357,
      "39": 358,
      "[=Ring1]": 359,
      "-2,": 360,
      "F3": 361,
      ";hydrochloride": 362,
      "40": 363,
      "[nH]": 364,
      "bro": 365,
      "H26": 366,
      "4-di": 367,
      "l2": 368,
      "bromo": 369,
      "sulfan": 370,
      "C21": 371,
      "piperidin": 372,
      "thio": 373,
      "H15": 374,
      "-1,3-": 375,
      "yl]amino]": 376,
      "[2-(": 377,
      "4H3": 378,
      "pyridin": 379,
      "9H2": 380,
      "7-": 381,
      "41": 382,
      "imid": 383,
      "carboxyl": 384,
      "-3-yl)": 385,
      "carbon": 386,
      "-1-yl]": 387,
      "propano": 388,
      "H27": 389,
      "h6": 390,
      "R,": 391,
      "acetamide": 392,
      "S)": 393,
      "H14": 394,
      "C22": 395,
      "propyl": 396,
      "[NH": 397,
      "O6": 398,
      "8H2": 399,
      "42": 400,
      "butyl": 401,
      "[O-]": 402,
      "benzamide": 403,
      "1H-": 404,
      "F2": 405,
      "olin": 406,
      "-1-yl)": 407,
      "[N+]": 408,
      "[NH1]": 409,
      "C10": 410,
      "(2,": 411,
      "5,": 412,
      "H28": 413,
      "butan": 414,
      "-3,": 415,
      "S,": 416,
      "carbam": 417,
      "43": 418,
      "-2-methyl": 419,
      "R)": 420,
      "methoxyphenyl)": 421,
      "methan": 422,
      "thiophen": 423,
      "thiazol": 424,
      "sulfanyl": 425,
      "phenoxy": 426,
      "N6": 427,
      "m0": 428,
      "C23": 429,
      "fluorophenyl)": 430,
      "H13": 431,
      "[O-1]": 432,
      "pyrrolidin": 433,
      "[(2-": 434,
      "44": 435,
      "ur": 436,
      "cyclohex": 437,
      "6,": 438,
      "7H2": 439,
      ".0": 440,
      "tetr": 441,
      "-4-yl)": 442,
      "trifluoro": 443,
      "[Si": 444,
      "h7": 445,
      "-2-oxo": 446,
      "hydro-": 447,
      "ethyl)": 448,
      "-4-methyl": 449,
      "ind": 450,
      "ane": 451,
      "pyrazol": 452,
      "[Si]": 453,
      "imidazol": 454,
      "-3-methyl": 455,
      "il": 456,
      "(1-": 457,
      "sulfonyl": 458,
      "H29": 459,
      "8-": 460,
      "chlorophenyl)": 461,
      "45": 462,
      "C24": 463,
      "H12": 464,
      "ter": 465,
      "9H": 466,
      "[[2-": 467,
      "pyrim": 468,
      "5-di": 469,
      "piperazin": 470,
      "-3-yl]": 471,
      "[N+1]": 472,
      "-butyl": 473,
      "qu": 474,
      "quin": 475,
      "t-butyl": 476,
      "[(4-": 477,
      "tert-butyl": 478,
      "[5-": 479,
      "m1": 480,
      "46": 481,
      "it": 482,
      "H30": 483,
      "propan-2-yl": 484,
      "de": 485,
      "(2-methyl": 486,
      "[4-(": 487,
      "[1,": 488,
      "C9": 489,
      "nit": 490,
      "ilin": 491,
      "anilin": 492,
      "[(2": 493,
      "47": 494,
      "H-": 495,
      "yl)amino]": 496,
      "C25": 497,
      "uran": 498,
      "furan": 499,
      "phenoxy)": 500,
      "8H": 501,
      "idene": 502,
      "-2-en": 503,
      "indol": 504,
      "cyclopent": 505,
      "butano": 506,
      "48": 507,
      "6H2": 508,
      "3-di": 509,
      "bi": 510,
      "h8": 511,
      "-1,2,": 512,
      "propanamide": 513,
      "-1,3-thiazol": 514,
      "(2": 515,
      "H11": 516,
      "nitro": 517,
      "-2-(": 518,
      "-3-yl": 519,
      "carboxylic acid": 520,
      "E)": 521,
      "quinolin": 522,
      "tetra": 523,
      "49": 524,
      "pyrimidin": 525,
      "C26": 526,
      "carboxylate": 527,
      "carbamo": 528,
      "oxa": 529,
      "7,": 530,
      "[3-(": 531,
      "oc": 532,
      "(4-methyl": 533,
      "-1-yl": 534,
      "-7-": 535,
      "H31": 536,
      "methyl ": 537,
      "-4-yl": 538,
      "pyridine": 539,
      "3,4-": 540,
      "'-": 541,
      "[#N]": 542,
      "triazol": 543,
      "benzene": 544,
      "methanone": 545,
      "-3-(": 546,
      "oct": 547,
      "h9": 548,
      "-4-yl]": 549,
      "H10": 550,
      "50": 551,
      "9-": 552,
      "7H": 553,
      "cyclopropyl": 554,
      "O7": 555,
      "prop-2-en": 556,
      "-2-carboxamide": 557,
      "trifluoromethyl)": 558,
      "anilino": 559,
      "-5-yl)": 560,
      "aza": 561,
      "piperidine": 562,
      "rph": 563,
      "5H3": 564,
      "-1,2,4-": 565,
      "propyl)": 566,
      "azo": 567,
      "rpholin": 568,
      "morpholin": 569,
      "C8": 570,
      "propyl]": 571,
      "-N-methyl": 572,
      "cyclo[": 573,
      "pentano": 574,
      "51": 575,
      "[(3-": 576,
      "-1H-": 577,
      "5-dimethyl": 578,
      "2.": 579,
      "pyrrolidine": 580,
      "H32": 581,
      "C27": 582,
      "(5-": 583,
      "al": 584,
      "-2-oxoethyl]": 585,
      "-3-carboxamide": 586,
      "52": 587,
      "6-di": 588,
      "sulfonamide": 589,
      "[=S": 590,
      "[=S]": 591,
      "a-": 592,
      "oxol": 593,
      "ylamino)": 594,
      "amino-N-": 595,
      "[2,": 596,
      "pentan": 597,
      "5H2": 598,
      "pt": 599,
      "hept": 600,
      "diazol": 601,
      "h10": 602,
      "phth": 603,
      "H9": 604,
      "53": 605,
      "oxazol": 606,
      "N7": 607,
      "2-[": 608,
      "C28": 609,
      "e-4-": 610,
      "-1,2-": 611,
      "54": 612,
      "ropyr": 613,
      "le": 614,
      "(3,": 615,
      "aphth": 616,
      "6H": 617,
      "itri": 618,
      "itrile": 619,
      "(3-methyl": 620,
      "-1-oxo": 621,
      "),": 622,
      "aminomethyl)": 623,
      "benzimidazol": 624,
      "tert-butyl ": 625,
      "-4,": 626,
      "a]": 627,
      "H33": 628,
      "methylamino)": 629,
      "naphth": 630,
      "anilino)": 631,
      "5,6,": 632,
      "ethyl ": 633,
      "S)-2-": 634,
      "H8": 635,
      "dec": 636,
      "(1,": 637,
      "55": 638,
      "(2-methoxy": 639,
      "benzyl": 640,
      "azolo": 641,
      "propan-1-": 642,
      "b]": 643,
      "[[1-": 644,
      "-N": 645,
      "-4-oxo": 646,
      "56": 647,
      "C7": 648,
      "ylamino]": 649,
      "h11": 650,
      "2C": 651,
      "propanoic acid": 652,
      "naphthal": 653,
      "bicyclo[": 654,
      "butanamide": 655,
      "io": 656,
      "-5-methyl": 657,
      "8,": 658,
      "N-[1-": 659,
      "-8-": 660,
      "C29": 661,
      "thiophene": 662,
      "so": 663,
      "ep": 664,
      "piperazin-1-yl]": 665,
      "carbamate": 666,
      "methylamino]": 667,
      "H34": 668,
      "4]": 669,
      "methylidene": 670,
      "[I": 671,
      ";di": 672,
      "ido": 673,
      "-3-phenyl": 674,
      "do": 675,
      "57": 676,
      "piperidin-1-yl]": 677,
      "a,": 678,
      "4H2": 679,
      "d]": 680,
      "os": 681,
      "-5-(": 682,
      "piro": 683,
      ";dihydrochloride": 684,
      "spiro": 685,
      "hydro-1H-": 686,
      "H6": 687,
      "H7": 688,
      "eno": 689,
      "iso": 690,
      "cyano": 691,
      "58": 692,
      "c]": 693,
      "acetic acid": 694,
      "O8": 695,
      "difluoro": 696,
      "N-(2-": 697,
      "[(5-": 698,
      "[2,3-": 699,
      "[I]": 700,
      "-3,4-di": 701,
      "-2-one": 702,
      "-1,2,4-triazol": 703,
      "oxy)": 704,
      "oxan": 705,
      "[(1-": 706,
      "amino-2-": 707,
      "C30": 708,
      "methoxy)": 709,
      "N-[2-": 710,
      "3-dimethyl": 711,
      "propan-2-yl)": 712,
      "sulfanyl]": 713,
      "-2-amine": 714,
      "ethoxy)": 715,
      "bis": 716,
      "azep": 717,
      "propan-2-yl]": 718,
      "4,5-": 719,
      "acetyl]amino]": 720,
      "2H-": 721,
      "-2,3-di": 722,
      "carbonyl)": 723,
      "%10": 724,
      "naphthalen": 725,
      "59": 726,
      "propanoyl]amino]": 727,
      "trimethyl": 728,
      "phenyl)methyl]": 729,
      "-4-(": 730,
      "-1,3-di": 731,
      "+]": 732,
      "-5-oxo": 733,
      "benzodi": 734,
      "2-dimethyl": 735,
      "ethanone": 736,
      "2-(": 737,
      "+1]": 738,
      "spiro[": 739,
      "C6": 740,
      "6H3": 741,
      "oxadiazol": 742,
      "9,": 743,
      "[=Ring2]": 744,
      "oxolan": 745,
      "H35": 746,
      "[(E)": 747,
      "-2,4-di": 748,
      "(4-methylphenyl)": 749,
      "Z)": 750,
      "butyl)": 751,
      "3.": 752,
      "yn": 753,
      "6-dimethyl": 754,
      "[[4-": 755,
      "[6-": 756,
      "um": 757,
      "5H": 758,
      "-5-yl]": 759,
      "h12": 760,
      "deca": 761,
      "sulfam": 762,
      "F4": 763,
      "-3-hydroxy": 764,
      "e-1-": 765,
      "60": 766,
      "hexa": 767,
      "ane-1-": 768,
      "azolo[": 769,
      "benzoate": 770,
      "sulfamo": 771,
      "[(2-methyl": 772,
      "thia": 773,
      "butanoic acid": 774,
      "chloro-4-": 775,
      "-N-(": 776,
      "[[(2": 777,
      "-9-": 778,
      "phenyl]methyl]": 779,
      "H36": 780,
      "r2": 781,
      "N-(3-": 782,
      "61": 783,
      "ethanamine": 784,
      "thiophen-2-yl)": 785,
      "(4-methoxyphenyl)": 786,
      "H4": 787,
      "[(2,": 788,
      "ethylamino)": 789,
      "(4-fluorophenyl)": 790,
      "benzenesulfonamide": 791,
      "c16": 792,
      "-di": 793,
      "-3-oxo": 794,
      "hydr": 795,
      "chloro-2-": 796,
      "2-[[2-": 797,
      "pyrazol-4-yl)": 798,
      "piperidin-1-yl)": 799,
      "c15": 800,
      "-N-(2-": 801,
      "[[2-(": 802,
      "3]": 803,
      "dimethylamino)": 804,
      "-1-benzo": 805,
      "-2-ylmethyl)": 806,
      "c17": 807,
      "ium": 808,
      "C31": 809,
      "methoxy]": 810,
      "-6-methyl": 811,
      "[(3": 812,
      "N-(": 813,
      "-2-phenyl": 814,
      "62": 815,
      "tetrahydro": 816,
      "acetate": 817,
      "4-dimethyl": 818,
      "(4-chlorophenyl)": 819,
      "azine": 820,
      "N8": 821,
      "(4-bromo": 822,
      "hydro-2H-": 823,
      "-2-carboxylic acid": 824,
      "2.1]": 825,
      "nitrophenyl)": 826,
      "5,6,7,": 827,
      "rom": 828,
      "chrom": 829,
      "3H2": 830,
      "-N-[2-": 831,
      "c14": 832,
      "63": 833,
      "c19": 834,
      "c18": 835,
      "methanamine": 836,
      "R,4": 837,
      "(2S)-2-": 838,
      "hydroxymethyl)": 839,
      "methyl-": 840,
      "phos": 841,
      "phosph": 842,
      "e-5-": 843,
      "ethoxy]": 844,
      "octa": 845,
      "-4-carboxamide": 846,
      "7-di": 847,
      "morpholin-4-yl": 848,
      "l3": 849,
      "benzothiazol": 850,
      "64": 851,
      "cyclohexyl)": 852,
      "benzoic acid": 853,
      "pyrimidine": 854,
      "2,2-": 855,
      "pyrrolidin-1-yl]": 856,
      "R)-2-": 857,
      "3,4-di": 858,
      "pentanoic acid": 859,
      "H37": 860,
      "phenoxy]": 861,
      "oxy]": 862,
      "h13": 863,
      "C32": 864,
      "thieno": 865,
      "(E)": 866,
      "acetyl": 867,
      "[[5-": 868,
      "11,": 869,
      "cyclohexyl": 870,
      "c20": 871,
      "acy": 872,
      "-1-phenyl": 873,
      "iodo": 874,
      "acyclo": 875,
      "hydroxyphenyl)": 876,
      "65": 877,
      "-3": 878,
      "N-[2-(": 879,
      "azabicyclo[": 880,
      "10,": 881,
      "d]pyrimidin": 882,
      "amino-1-": 883,
      "e-4-carboxamide": 884,
      "trifluoromethyl)phenyl]": 885,
      ".02,": 886,
      "-1,4-": 887,
      "-1-one": 888,
      "c13": 889,
      "-N,": 890,
      "[(2-amino": 891,
      "N-[3-": 892,
      "66": 893,
      "S3": 894,
      "piperazin-1-yl)": 895,
      "-1,2,4-oxadiazol": 896,
      "-1,3,4-": 897,
      "isoquinolin": 898,
      "-5,": 899,
      "-1-amine": 900,
      "[[3-": 901,
      "propane": 902,
      "S,5": 903,
      "4.": 904,
      "H38": 905,
      "cyclopenta": 906,
      "[3,": 907,
      "10-": 908,
      "carbonitrile": 909,
      "2-[2-": 910,
      "5]": 911,
      "piperidin-4-yl": 912,
      "enyl]": 913,
      "67": 914,
      "R,3": 915,
      "acyclo[": 916,
      "thiophen-2-yl": 917,
      "(1-methyl": 918,
      "propanoate": 919,
      "N-[4-": 920,
      "an-3-yl)": 921,
      "indole": 922,
      "carbonyl]": 923,
      "-6,": 924,
      "c21": 925,
      "amido": 926,
      "non": 927,
      "(3,4-di": 928,
      "ea": 929,
      "urea": 930,
      "thiadiazol": 931,
      "-1,2-oxazol": 932,
      "carboxy": 933,
      "4H": 934,
      "pyridin-2-yl)": 935,
      "68": 936,
      "acetamide;hydrochloride": 937,
      "-1,4-di": 938,
      "(3-methoxy": 939,
      "carbamoyl]": 940,
      "-4-amine": 941,
      "12,": 942,
      "2-methyl": 943,
      "-1-methyl": 944,
      "-6-(": 945,
      "hydropyr": 946,
      "onitrile": 947,
      "R,6": 948,
      "pentanoyl]amino]": 949,
      "chloro-N-": 950,
      "[1,2-": 951,
      "butanoyl]amino]": 952,
      "(2,3-di": 953,
      "69": 954,
      "aniline": 955,
      "-N'-": 956,
      "propan-1-one": 957,
      "cyclopenta[": 958,
      "(3": 959,
      "N-(1-": 960,
      "R,5": 961,
      "H39": 962,
      "[(1": 963,
      "carbamothio": 964,
      "fluorophenyl)methyl]": 965,
      "-6-yl)": 966,
      "[(1S": 967,
      "butyl]": 968,
      "70": 969,
      "F6": 970,
      "H5": 971,
      "-1,3,": 972,
      "pyrrole": 973,
      "S,3": 974,
      "[(4-methyl": 975,
      "N,": 976,
      "sil": 977,
      "[1,2,": 978,
      "N'-": 979,
      "-1-oxopropan-2-yl]": 980,
      "S,4": 981,
      "2H2": 982,
      "prop-2-eno": 983,
      "methylidene]": 984,
      "-4-methoxy": 985,
      "-N-[2-(": 986,
      "butan-2-yl]": 987,
      "c22": 988,
      "methoxyphenyl)methyl]": 989,
      "C33": 990,
      "-1-(": 991,
      "11-": 992,
      "O9": 993,
      "azaspiro[": 994,
      "propan-1-amine": 995,
      "N-methyl": 996,
      "imidazo": 997,
      "tricyclo[": 998,
      "ethylamino]": 999,
      "furan-2-yl)": 1000,
      "71": 1001,
      "4,5-tri": 1002,
      "2,2-trifluoro": 1003,
      "-4-one": 1004,
      "[1,2,4]": 1005,
      "carbonyl]amino]": 1006,
      "ine": 1007,
      "-3-(4-": 1008,
      "(2-amino": 1009,
      "2-[4-": 1010,
      "c12": 1011,
      "72": 1012,
      "-2,3-dihydro": 1013,
      "ropyridin": 1014,
      "-3-(1H-": 1015,
      "-1,3-oxazol": 1016,
      "cyclopentyl": 1017,
      "pyrid": 1018,
      "R)-1-": 1019,
      "-1,2-di": 1020,
      "(2,4-di": 1021,
      "phenyl)-2-": 1022,
      "-3-methoxy": 1023,
      ",2": 1024,
      "hexano": 1025,
      "propanamide;hydrochloride": 1026,
      "t11": 1027,
      "S)-1-": 1028,
      "pyridin-3-yl)": 1029,
      "benzimidazol-2-yl]": 1030,
      "pyrrolidin-1-yl)": 1031,
      "t12": 1032,
      "-3-carboxylic acid": 1033,
      "ane-1-carboxamide": 1034,
      "73": 1035,
      "indol-3-yl)": 1036,
      "tert-butyl N-[1-": 1037,
      "imidamide": 1038,
      "1(": 1039,
      "dioxo": 1040,
      "-1-ol": 1041,
      "pyrazol-3-yl)": 1042,
      "benzoyl)": 1043,
      "H40": 1044,
      "C34": 1045,
      "carbonyl)amino]": 1046,
      "-1,3-benzothiazol": 1047,
      "bromo-4-": 1048,
      "benzamide;hydrochloride": 1049,
      "S,6": 1050,
      "piperidine-1-": 1051,
      "thieno[2,3-": 1052,
      "azepan": 1053,
      "7H3": 1054,
      "pyrrolidin-1-yl": 1055,
      "74": 1056,
      "amethyl": 1057,
      "-3-carboxylate": 1058,
      "3-amino-N-": 1059,
      "c23": 1060,
      "-5-yl": 1061,
      "t13": 1062,
      "pyridin-3-yl": 1063,
      "benzonitrile": 1064,
      "N+1]": 1065,
      "-2,2-dimethyl": 1066,
      "[1,3]": 1067,
      "t10": 1068,
      "methanol": 1069,
      "[(2-methylpropan-2-yl)": 1070,
      "[1-(": 1071,
      "(1,3-": 1072,
      "bromo-2-": 1073,
      "75": 1074,
      "[1,2,4]tri": 1075,
      "[[": 1076,
      "quinazol": 1077,
      "-2-yl)methyl]": 1078,
      "pyridin-2-yl]": 1079,
      "-2-hydroxy": 1080,
      "heptan": 1081,
      "cyclohexyl]": 1082,
      "cyclobutyl": 1083,
      "[=N+1]": 1084,
      "H41": 1085,
      "(2-hydroxy": 1086,
      "oxyphenyl)": 1087,
      "4-(": 1088,
      "76": 1089,
      "[1,2-a]": 1090,
      "3,4,": 1091,
      "thiol": 1092,
      "piperidin-4-yl]": 1093,
      "h14": 1094,
      "-2,5-di": 1095,
      "13,": 1096,
      "(4-amino": 1097,
      "sulfamoyl)": 1098,
      "[3,2-": 1099,
      "-1,2,4-triazol-3-yl]": 1100,
      "a,4,": 1101,
      "15,": 1102,
      "fluoro-4-": 1103,
      "[1,5-": 1104,
      "acetyl]": 1105,
      "prop-2-enyl": 1106,
      "tetrazol": 1107,
      "quinoline": 1108,
      "3,3-": 1109,
      "77": 1110,
      "pyrazin": 1111,
      "-3-amine": 1112,
      "methanone;hydrochloride": 1113,
      "-N-ethyl": 1114,
      "14,": 1115,
      "-4-methylsulfanyl": 1116,
      "difluoromethyl)": 1117,
      "[[4-(": 1118,
      "t14": 1119,
      "gu": 1120,
      "anidine": 1121,
      "guanidine": 1122,
      "4H-": 1123,
      "anilino]": 1124,
      "amino-5-": 1125,
      "dide": 1126,
      "N-ethyl": 1127,
      "benzodiox": 1128,
      "ethanol": 1129,
      "F5": 1130,
      "-1-benzofuran": 1131,
      "or": 1132,
      "1-[2-": 1133,
      "carboximidamide": 1134,
      "benzodioxol": 1135,
      "idene]": 1136,
      "78": 1137,
      "pyridin-3-yl]": 1138,
      "butan-2-yl": 1139,
      "pyridin-2-yl": 1140,
      "hexan": 1141,
      "[n+]": 1142,
      "13-": 1143,
      "pyrrolidin-3-yl": 1144,
      "chromen": 1145,
      "[1,5-a]": 1146,
      "propoxy)": 1147,
      "7a-": 1148,
      "ino": 1149,
      "t9": 1150,
      "pyridazin": 1151,
      "-2-ol": 1152,
      "(3-amino": 1153,
      "79": 1154,
      "-1,3,4-thiadiazol": 1155,
      "1,3-": 1156,
      "azabicyclo[3.": 1157,
      "c11": 1158,
      "-2-(4-": 1159,
      "iodide": 1160,
      "piperidine-4-carboxamide": 1161,
      "-2-carboxylate": 1162,
      "penta": 1163,
      "-2,6-di": 1164,
      "-2-oxoethyl]-": 1165,
      "H42": 1166,
      "(2-oxo": 1167,
      ";hydro": 1168,
      "piperidin-1-yl": 1169,
      "-3,5-di": 1170,
      ".0.02,": 1171,
      "12-": 1172,
      "tetrahydro-": 1173,
      "-N-(3-": 1174,
      "(2-phenyl": 1175,
      "azatricyclo[": 1176,
      "80": 1177,
      "bromo-5-": 1178,
      "c24": 1179,
      "e-3-carboxamide": 1180,
      "-2-carboxamide;hydrochloride": 1181,
      "(2-methylpropyl)": 1182,
      "quinazolin": 1183,
      "4a,": 1184,
      "piperazine-1-": 1185,
      "chlorophenyl)methyl]": 1186,
      "1-(": 1187,
      "-N-propyl": 1188,
      "chloro-5-": 1189,
      "1-dioxo": 1190,
      "N-(3-amino": 1191,
      "3,5-di": 1192,
      "carbamothioyl]": 1193,
      "sulfonyl)": 1194,
      "-4-phenyl": 1195,
      "-4,5-di": 1196,
      "azolo[1,5-a]": 1197,
      "t15": 1198,
      "yl]oxy": 1199,
      "81": 1200,
      "carbamoyl)": 1201,
      "(4-chloro": 1202,
      "azolo[3,4-": 1203,
      "benzoyl)amino]": 1204,
      "(1": 1205,
      "C35": 1206,
      "H43": 1207,
      "2-amino-N-": 1208,
      "ethyn": 1209,
      "methylsulfanyl]": 1210,
      "[3,4-": 1211,
      "azet": 1212,
      ";hydroiodide": 1213,
      "butanamide;hydrochloride": 1214,
      "methyl-2-": 1215,
      "C36": 1216,
      "1-[4-": 1217,
      "-2-methoxy": 1218,
      "acetamido": 1219,
      "[[2-[(2-amino": 1220,
      "bis(": 1221,
      "9-di": 1222,
      "roprop": 1223,
      "17-": 1224,
      "-3-sulfanyl": 1225,
      "8H3": 1226,
      "-3-ylmethyl)": 1227,
      "3-(": 1228,
      "(2-methoxyethyl)": 1229,
      "82": 1230,
      "anth": 1231,
      "O10": 1232,
      "propanoylamino]": 1233,
      "decan": 1234,
      "-]": 1235,
      "pyrrolo": 1236,
      "tetramethyl": 1237,
      "[2-[2-": 1238,
      "-N,N-": 1239,
      "e-5-carboxamide": 1240,
      "methane": 1241,
      "2.1]oct": 1242,
      "[(2-methylpropan-2-yl)oxy": 1243,
      "pentan-2-yl]": 1244,
      "S)-": 1245,
      "(4-methoxy": 1246,
      "(2,5-di": 1247,
      "(4-ethyl": 1248,
      "diamino": 1249,
      "ylphenyl)": 1250,
      "3,5-dimethyl": 1251,
      "[(1-methyl": 1252,
      "anium": 1253,
      "trifluoromethoxy)": 1254,
      "83": 1255,
      "azepin": 1256,
      "(4": 1257,
      "R)-3-": 1258,
      "bromo-N-": 1259,
      "sulfanyl)": 1260,
      "2.2.1]": 1261,
      "(5-methyl": 1262,
      "84": 1263,
      "E,": 1264,
      "butan-2-yl)": 1265,
      "2H": 1266,
      "ethoxyphenyl)": 1267,
      "pyridin-4-yl": 1268,
      "carbonylamino)": 1269,
      "(2-methylphenyl)": 1270,
      "diaminomethylidene": 1271,
      "pentanamide": 1272,
      "methoxymethyl)": 1273,
      "[(E)-": 1274,
      "(2,2,2-trifluoro": 1275,
      "propylamino)": 1276,
      "[2-(2,": 1277,
      "-methylamino]": 1278,
      "-4-yl)methyl]": 1279,
      "[(3-methyl": 1280,
      "1-(3-": 1281,
      "t16": 1282,
      "[(6-": 1283,
      "sulfonylamino]": 1284,
      "7.": 1285,
      "(1S": 1286,
      "prop-2-enamide": 1287,
      "bromophenyl)": 1288,
      "4,6-": 1289,
      "oxan-2-yl]": 1290,
      "-1]": 1291,
      "85": 1292,
      "methyl 2-": 1293,
      "imino": 1294,
      "R,2": 1295,
      "imidazol-5-yl)": 1296,
      "azabicyclo[3.2.1]oct": 1297,
      "5-tri": 1298,
      "c10": 1299,
      "[(5-methyl": 1300,
      "4,3-": 1301,
      "-1,4-benzodiox": 1302,
      "C5": 1303,
      "c25": 1304,
      "benzo[": 1305,
      "-1,3-thiazol-2-yl]": 1306,
      "86": 1307,
      "-3,4-dihydro-2H-": 1308,
      "5,6,7-": 1309,
      "(2-methoxyethoxy)": 1310,
      "diaminomethylideneamino)": 1311,
      "-3,4-dihydro-1H-": 1312,
      "cyclobutyl)": 1313,
      "7,8,": 1314,
      "16,": 1315,
      "acetyl)amino]": 1316,
      "cyclopentyl]": 1317,
      "-3-one": 1318,
      "(2,3-dihydro": 1319,
      "8-di": 1320,
      "87": 1321,
      "7-dihydro-": 1322,
      "[A": 1323,
      "thiophene-2-carboxamide": 1324,
      "2-(2-": 1325,
      "benzox": 1326,
      "N-[5-": 1327,
      "aminoethyl)": 1328,
      "88": 1329,
      "ren": 1330,
      "(2R)-2-": 1331,
      "N9": 1332,
      "piperidine-3-carboxamide": 1333,
      "H45": 1334,
      "pyridine-3-carboxamide": 1335,
      "t8": 1336,
      "hydrazin": 1337,
      "2-[3-": 1338,
      "h15": 1339,
      "-3-en": 1340,
      ".03,": 1341,
      "benzoxazol": 1342,
      "azetidin": 1343,
      "H44": 1344,
      "[C": 1345,
      "ethyl]amino]": 1346,
      "-6-yl]": 1347,
      "pyrrolidine-1-": 1348,
      "un": 1349,
      "5,6,7,8-": 1350,
      "(methyl)": 1351,
      "pyrazolo[3,4-": 1352,
      "propan-2-yloxy": 1353,
      "3,4-dimethyl": 1354,
      "e]": 1355,
      "-N-[3-": 1356,
      "c9": 1357,
      "cyclopropan": 1358,
      "pyridine-3-": 1359,
      "-7-yl)": 1360,
      "carbonylamino]": 1361,
      "t17": 1362,
      "methyl]phenyl]": 1363,
      "-1-oxobutan-2-yl]": 1364,
      "89": 1365,
      "(3-methylphenyl)": 1366,
      "(4-bromophenyl)": 1367,
      "-4-hydroxy": 1368,
      "-6-oxo": 1369,
      "-3-nitro": 1370,
      "inden": 1371,
      "imido": 1372,
      "bicyclo[2.2.1]": 1373,
      "5-methyl": 1374,
      "sulfamoyl]": 1375,
      "dio": 1376,
      "N-(1-amino": 1377,
      "2-(3-": 1378,
      "90": 1379,
      "-N-[1-": 1380,
      "-1,3-thiazolidin": 1381,
      "-10-": 1382,
      "-2,4-dione": 1383,
      "methyl 3-": 1384,
      "S)-3-": 1385,
      "-3-yl)methyl]": 1386,
      "pyrrolidin-3-yl]": 1387,
      "-1,2,4-triazol-3-yl]sulfanyl]": 1388,
      "prop-1-": 1389,
      "N-[3-(": 1390,
      "3,5,": 1391,
      "fluorophenoxy)": 1392,
      "4,6,": 1393,
      "piperidin-3-yl": 1394,
      "[(4": 1395,
      "chloro-6-": 1396,
      "N-[[1-": 1397,
      "(5": 1398,
      "-3-(1H-imidazol-5-yl)": 1399,
      "1-(2-": 1400,
      "difluoromethoxy)": 1401,
      "4.5]": 1402,
      "3a,4,": 1403,
      "-3,3-dimethyl": 1404,
      "91": 1405,
      ".04,": 1406,
      "pyrrolidine-3-carboxamide": 1407,
      "-1,4-benzodioxin": 1408,
      "[(2-methylpropan-2-yl)oxycarbonylamino]": 1409,
      "[(1S)": 1410,
      "5-dimethylphenyl)": 1411,
      "benzoyl]amino]": 1412,
      "-5-(diaminomethylideneamino)": 1413,
      "piperazin-1-yl": 1414,
      "-1-(3-": 1415,
      "anilino)-2-oxoethyl]": 1416,
      "a-1(": 1417,
      "92": 1418,
      "isoindol": 1419,
      "deca-": 1420,
      "piperidin-3-yl]": 1421,
      "butane": 1422,
      "propyl)amino]": 1423,
      "sulfanylidene": 1424,
      "-(": 1425,
      "chlorophenoxy)": 1426,
      "methylaminomethyl)": 1427,
      "R,4S,5": 1428,
      "hepta": 1429,
      "ethenyl]": 1430,
      "(2S)-2-amino-N-": 1431,
      "-N-[4-": 1432,
      "-1,3-thiazol-4-yl]": 1433,
      "(4-phenyl": 1434,
      "naphthalen-1-yl": 1435,
      "3H": 1436,
      "propanoylamino)": 1437,
      "carbazol": 1438,
      "carbonyl": 1439,
      "naphthalen-2-yl": 1440,
      "ethyl]-2-": 1441,
      "chloropyridin": 1442,
      "[(2R,3": 1443,
      "5H-": 1444,
      "[As": 1445,
      "ethyl)amino]": 1446,
      "',": 1447,
      "cyclohexane-1-carboxamide": 1448,
      "oxane": 1449,
      "%11": 1450,
      "azolo[4,3-": 1451,
      "fluoroprop": 1452,
      "1-[3-": 1453,
      "2-[1-": 1454,
      "-1H": 1455,
      "diethyl": 1456,
      "thiophen-2-yl]": 1457,
      "[As]": 1458,
      "cyclopropyl)": 1459,
      "[5-(": 1460,
      "methyl 4-": 1461,
      "93": 1462,
      "(4-propan-2-yl": 1463,
      "but-2-en": 1464,
      "imidazo[1,2-a]": 1465,
      "pyrazol-4-yl]": 1466,
      "pyrrolidine-2-carboxylic acid": 1467,
      "3-methyl": 1468,
      "R)-": 1469,
      "naphthalene": 1470,
      "butan-1-one": 1471,
      "[[(2S)-2-": 1472,
      "(2,6-di": 1473,
      "indazol": 1474,
      "2(": 1475,
      "c26": 1476,
      "5,6,7-tetrahydro": 1477,
      "8a-": 1478,
      "-1,3-thiazol-2-yl)": 1479,
      "14-": 1480,
      "(2-methoxyphenyl)": 1481,
      "-[4-": 1482,
      "C38": 1483,
      "morpholine": 1484,
      "C37": 1485,
      "furan-2-yl]": 1486,
      "piperidin-4-yl)": 1487,
      "5.": 1488,
      "-1,2-diamine": 1489,
      "94": 1490,
      "ethen": 1491,
      "c8": 1492,
      "c]pyrrole": 1493,
      "2-amino": 1494,
      "dehyd": 1495,
      ".0]": 1496,
      "3-[": 1497,
      "dehyde": 1498,
      "7-dimethyl": 1499,
      "aldehyde": 1500,
      "thieno[2,3-d]pyrimidin": 1501,
      "-1,3,5-tri": 1502,
      "-1,2-thiazol": 1503,
      "-1,3,4-oxadiazol": 1504,
      "propanoyl]": 1505,
      "R,8": 1506,
      "3-amino": 1507,
      "[(Z)": 1508,
      "t18": 1509,
      "hydroxy-": 1510,
      "-3-(4-hydroxyphenyl)": 1511,
      "hydrazine": 1512,
      "H46": 1513,
      "cyclopropane": 1514,
      "pyrrolidine-2-carboxamide": 1515,
      "1-methyl": 1516,
      "methylamino)ethyl]": 1517,
      "(methyl)amino]": 1518,
      "propanoyl)amino]": 1519,
      "[N-": 1520,
      "pyrido": 1521,
      "butanoate": 1522,
      "(2-chlorophenyl)": 1523,
      "95": 1524,
      "e-4-carboxylate": 1525,
      " 4-": 1526,
      "H47": 1527,
      "S,7": 1528,
      "phenol": 1529,
      "(2-fluorophenyl)": 1530,
      "[(2S,3": 1531,
      "6-methyl": 1532,
      "96": 1533,
      "1-[1-": 1534,
      "pyridin-2-amine": 1535,
      "C4": 1536,
      "[*:3]": 1537,
      "[*:4]": 1538,
      "-2-carbonyl)": 1539,
      "-5-methoxy": 1540,
      "-4-oxobutanoic acid": 1541,
      "cyclohexan": 1542,
      "-[2-": 1543,
      "(3-hydroxy": 1544,
      "-2,3,": 1545,
      "hydropyrro": 1546,
      "1,2,": 1547,
      "pentanoyl)amino]": 1548,
      "oxal": 1549,
      "9,11,": 1550,
      "[Na": 1551,
      "-1-ium": 1552,
      "idene)": 1553,
      "6.": 1554,
      "6a-": 1555,
      "[[3-(": 1556,
      "yloxy": 1557,
      "azabicyclo[3.2.1]octan-3-yl)": 1558,
      "5,6,7,7a-": 1559,
      "-1,3-benzothiazol-2-yl)": 1560,
      "piperidine-4-": 1561,
      "propoxy": 1562,
      "-N-(1-": 1563,
      "N-(4-": 1564,
      "-1-oxopentan-2-yl]": 1565,
      "-3,4,5-tri": 1566,
      "97": 1567,
      "18,": 1568,
      "-3-oxopropyl]": 1569,
      "ethane": 1570,
      "-3,5-dimethyl": 1571,
      "ethoxy]ethoxy]": 1572,
      "(3-chlorophenyl)": 1573,
      "1H2": 1574,
      "C2": 1575,
      "-2-methylphenyl)": 1576,
      "fluoro-2-": 1577,
      "b]pyridin": 1578,
      "(2,2-dimethyl": 1579,
      "chloro-4-methyl": 1580,
      "atetr": 1581,
      "diethylamino)": 1582,
      "-N,N-dimethyl": 1583,
      "-[1,2,4]tri": 1584,
      "6-methoxy": 1585,
      "N-(5-": 1586,
      "N-[(4-": 1587,
      "98": 1588,
      "-3-ol": 1589,
      "17,": 1590,
      "1-[2-(": 1591,
      "carbo": 1592,
      "piperidin-1-yl]-": 1593,
      "cyclopropane-1-": 1594,
      "2-di": 1595,
      "ethyl 4-": 1596,
      "b]pyridine": 1597,
      "(E)-3-": 1598,
      "-2-yn": 1599,
      "15-": 1600,
      "7]": 1601,
      "-2-ethyl": 1602,
      "-1,2,4-oxadiazol-5-yl]": 1603,
      "propoxy]": 1604,
      "oxolane": 1605,
      "-1,2,4-triazol-3-yl)": 1606,
      "-11-": 1607,
      "enitrile": 1608,
      "propan-1-ol": 1609,
      "8-azabicyclo[3.2.1]octan-3-yl)": 1610,
      "propan-2-amine": 1611,
      "nonan": 1612,
      "pur": 1613,
      "phenanth": 1614,
      "sulfin": 1615,
      "-3-(1H-indol-3-yl)": 1616,
      "(3,5-di": 1617,
      "C40": 1618,
      "c27": 1619,
      "decane": 1620,
      "chloromethyl)": 1621,
      "d]pyrimidine": 1622,
      "phenoxy)ethyl]": 1623,
      "ane-1-carboxylic acid": 1624,
      "pyrazolo[1,5-a]": 1625,
      "hydropyrrolo": 1626,
      "99": 1627,
      "benzimidazol-2-yl)": 1628,
      "azide": 1629,
      "benzodioxol-5-yl)": 1630,
      "t19": 1631,
      "azepan-1-yl)": 1632,
      "[(3,4-di": 1633,
      "[4,5-": 1634,
      "-2-fluoro": 1635,
      "-1H-pyrazol": 1636,
      "Z,": 1637,
      "(3-methoxyphenyl)": 1638,
      "e-3-": 1639,
      "[(2S)": 1640,
      "thiolan-3-yl)": 1641,
      "1'-": 1642,
      "hydrazide": 1643,
      "-1,3-benzoxazol": 1644,
      "(propan-2-yl)": 1645,
      "acetyloxy": 1646,
      "[[6-": 1647,
      "(2,6-dimethyl": 1648,
      "5,6,7,8,": 1649,
      "hydrazinyl": 1650,
      "pentyl)": 1651,
      "-4-fluoro": 1652,
      "cyclopentyl)": 1653,
      "atetracyclo[": 1654,
      "b-": 1655,
      "-5-oxopentanoic acid": 1656,
      "-1,3,4-thiadiazol-2-yl]": 1657,
      "N-[(3-": 1658,
      "bromo-3-": 1659,
      "-2-[4-": 1660,
      " 2-": 1661,
      "propan-2-ol": 1662,
      "H48": 1663,
      "sulfonylphenyl)": 1664,
      "[(1,": 1665,
      "6]": 1666,
      "-4,5,6,7-tetrahydro": 1667,
      "cyclohexane": 1668,
      "1.02,": 1669,
      "azanium": 1670,
      "-5-nitro": 1671,
      "chloro-3-": 1672,
      "(2,4-dimethyl": 1673,
      "pentacyclo[": 1674,
      "-2-carbonyl]amino]": 1675,
      "oxan-2-yl]oxy": 1676,
      "-3,4-dihydro-1H-isoquinolin": 1677,
      "azaspiro[4.5]": 1678,
      "benzimidazole": 1679,
      "[2,1-": 1680,
      "9H3": 1681,
      "octan": 1682,
      "t7": 1683,
      "piperazine": 1684,
      "pentyl": 1685,
      "chromeno": 1686,
      "-7-yl]": 1687,
      "(2S)": 1688,
      "5,7,": 1689,
      "carbamoylamino)": 1690,
      "4-methyl": 1691,
      "cyclopentane-1-carboxamide": 1692,
      "butan-1-amine": 1693,
      "3-[2-": 1694,
      "methoxy]phenyl]": 1695,
      "-2H-": 1696,
      "butoxy": 1697,
      "benzoyl]": 1698,
      "hydro-1H-inden": 1699,
      "methoxy-4-": 1700,
      "(Z)": 1701,
      "R,9": 1702,
      "2-[[2-[[2-[(2-amino": 1703,
      "(2-ethyl": 1704,
      "2-[[4-": 1705,
      "R,7": 1706,
      "tride": 1707,
      "-N-phenyl": 1708,
      "3,4-tetrahydro": 1709,
      "-5-phenyl": 1710,
      "-3-(1H-imidazol-5-yl)propanoyl]amino]": 1711,
      "osa-1(": 1712,
      "-4-(trifluoromethyl)": 1713,
      "(2-methoxyethylamino)": 1714,
      "(4-methylphenyl)sulfonyl": 1715,
      "C39": 1716,
      "(di": 1717,
      "dioic acid": 1718,
      "[3-(trifluoromethyl)phenyl]": 1719,
      "morpholin-4-yl)": 1720,
      "prop-2-enoate": 1721,
      "phosphor": 1722,
      ",3": 1723,
      "aR)": 1724,
      "chlorothiophen-2-yl)": 1725,
      "propan-2-ylamino)": 1726,
      "dodeca": 1727,
      "-1-(4-": 1728,
      "imidazolidin": 1729,
      "[[2-amino": 1730,
      "S,8": 1731,
      "P2": 1732,
      "2-difluoro": 1733,
      "uro": 1734,
      "thieno[3,2-": 1735,
      "-5-one": 1736,
      "cyclopenta[c]": 1737,
      "deca-1(": 1738,
      "furo": 1739,
      "-[1-": 1740,
      "),2(": 1741,
      "pyran": 1742,
      "5-(": 1743,
      "16-": 1744,
      "-3,4,": 1745,
      "thiophen-3-yl)": 1746,
      "-1,5-": 1747,
      "-1-[4-": 1748,
      "thiophen-3-yl": 1749,
      "guanidine;hydroiodide": 1750,
      "-2-[": 1751,
      "7-dihydro-4H-": 1752,
      "octane": 1753,
      "[(1R,2": 1754,
      "cyclopropylethyl)": 1755,
      "phenyl]-": 1756,
      "[H]": 1757,
      "thiophene-3-carboxylate": 1758,
      "[(2,4-di": 1759,
      "furan-2-carboxamide": 1760,
      "5,6-": 1761,
      "[1,4]": 1762,
      "2-[(4-": 1763,
      "-2,4-dioxo": 1764,
      "chromeno[2,3-": 1765,
      "4-amino-N-": 1766,
      "H49": 1767,
      "12,14,": 1768,
      "ethyl]benzamide": 1769,
      "phenyl]acetamide": 1770,
      "O12": 1771,
      "-3-methylphenyl)": 1772,
      "-5-(trifluoromethyl)": 1773,
      "[1]": 1774,
      "C42": 1775,
      "-3H-": 1776,
      "thiazin": 1777,
      "pentyl]": 1778,
      "h16": 1779,
      "-4-nitro": 1780,
      "O11": 1781,
      "t20": 1782,
      "oxan-4-yl)": 1783,
      "amino]methyl]": 1784,
      "triazole-4-carboxamide": 1785,
      "19,": 1786,
      "pyrazol-3-yl]": 1787,
      "oxo-2-": 1788,
      "benzofuran": 1789,
      "ethyl 3-": 1790,
      "-N-(4-": 1791,
      "pyrrolidin-2-one": 1792,
      "[[2-(2,": 1793,
      "+2]": 1794,
      "2-(4-": 1795,
      "(3,5-dimethyl": 1796,
      "-5-(diaminomethylideneamino)pentanoyl]amino]": 1797,
      "prop-2-yn": 1798,
      "1-(5-": 1799,
      "pyrazine": 1800,
      "phenyl]carbamothioyl]": 1801,
      "-1-oxopropan-2-yl]carbamate": 1802,
      "-5,6,7,8-": 1803,
      "azatricyclo[7.": 1804,
      "-6-(hydroxymethyl)": 1805,
      "butanoyl)amino]": 1806,
      "2-[2-(": 1807,
      "-2": 1808,
      "heptane": 1809,
      "aS)": 1810,
      "(2,3-dihydro-1,4-benzodioxin": 1811,
      "methylideneamino]": 1812,
      "carbamoylamino]": 1813,
      "[(2,5-di": 1814,
      "R)-5-": 1815,
      "[3-(methylamino)": 1816,
      "-7,": 1817,
      "dodec": 1818,
      "N-[4-(": 1819,
      "cyclopropyl]": 1820,
      "-N-[(4-": 1821,
      "N,N-": 1822,
      "benzenesulfonyl)": 1823,
      "N-[(2-": 1824,
      "-N-pyrrolidin-3-yl": 1825,
      "(1,2,": 1826,
      "cyclopropylmethylamino)": 1827,
      "ethyl]acetamide": 1828,
      "(3-fluorophenyl)": 1829,
      "-2-[2-": 1830,
      "-3-piperidin-4-yl": 1831,
      "methanesulfonamide": 1832,
      "ethanone;hydrochloride": 1833,
      "-2-sulfanylidene": 1834,
      "sulfanylphenyl]": 1835,
      "3H-": 1836,
      "-2-methylpropyl)": 1837,
      "fluoren": 1838,
      "quinoxal": 1839,
      "pyrazol-1-yl)": 1840,
      "hexahydro": 1841,
      " acetate": 1842,
      "pentane": 1843,
      "indol-1-yl)": 1844,
      "[B": 1845,
      "4-[": 1846,
      "azolo[4,3-a]": 1847,
      "hydro-2H": 1848,
      "chromeno[2,3-c]pyrrole": 1849,
      "-3a,4,": 1850,
      "(4-methylpiperazin-1-yl)": 1851,
      "bicyclo[3.": 1852,
      "-1,2,4-oxadiazol-5-yl)": 1853,
      "-2-sulfonamide": 1854,
      "-N-propan-2-yl": 1855,
      "phenylmethoxy": 1856,
      "R,4R,5": 1857,
      "3,4-dimethylphenyl)": 1858,
      "b10": 1859,
      "H50": 1860,
      "2.5]": 1861,
      "sulfanylmethyl]": 1862,
      "e-4-carboxylic acid": 1863,
      "N-(2-amino-2-": 1864,
      "carbaldehyde": 1865,
      "nitropyr": 1866,
      "cyclohept": 1867,
      "5-bromo": 1868,
      "chloro-2-fluorophenyl)": 1869,
      "(2S)-2-amino": 1870,
      "phenoxy)methyl]": 1871,
      "for": 1872,
      "-6-carboxamide": 1873,
      "form": 1874,
      "(2,3-dimethyl": 1875,
      "-1,4-benzox": 1876,
      "tetrazol-5-yl)": 1877,
      "b11": 1878,
      "-3,9-di": 1879,
      "fluoro-4-methyl": 1880,
      "(2-ethoxy": 1881,
      "but-3-en": 1882,
      "methanesulfon": 1883,
      "-2,5-dimethyl": 1884,
      "en-": 1885,
      "[2-[": 1886,
      "-1,5-di": 1887,
      "[(3,5-dimethyl": 1888,
      "R)-4-": 1889,
      "b9": 1890,
      "thiomorpholin": 1891,
      "ant": 1892,
      "7.0": 1893,
      "phenyl]-2-": 1894,
      "pyrrolidin-2-yl]": 1895,
      "amino]-2-oxoethyl]": 1896,
      "c7": 1897,
      "4,5-di": 1898,
      "pentan-2-yl": 1899,
      "t21": 1900,
      "5,6,7,7a-octa": 1901,
      "chromene": 1902,
      "thiourea": 1903,
      "ad": 1904,
      "phenylethyl)": 1905,
      "chloro-4-fluorophenyl)": 1906,
      "1-amino-N-": 1907,
      "c28": 1908,
      "(2,2,2-trifluoroethoxy)": 1909,
      "furan-2-ylmethyl)": 1910,
      "amant": 1911,
      "adamant": 1912,
      "-1-(2-": 1913,
      "-5,6-di": 1914,
      "azaspiro[2.5]": 1915,
      "hexyl": 1916,
      "-2-oxo-2-(": 1917,
      "-2,4-diamine": 1918,
      "S,10": 1919,
      "ethyl-": 1920,
      "pentan-2-yl)": 1921,
      "en-1-yl)": 1922,
      "-2-nitro": 1923,
      "4,6-tri": 1924,
      "[[1-(": 1925,
      "[N-]": 1926,
      "[1,3]thi": 1927,
      "[(4-methylphenyl)": 1928,
      "b12": 1929,
      "-1,3-thiazol-4-yl)": 1930,
      "-6-yl": 1931,
      "amino-2-[[2-": 1932,
      "i2": 1933,
      "methyl(": 1934,
      "(2-methylpyrazol-3-yl)": 1935,
      "(2,2,": 1936,
      "c]pyridin": 1937,
      "oxolan-2-yl]": 1938,
      "[(1S)-1-": 1939,
      "(1-methylpyrazol-4-yl)": 1940,
      "pyrimidine-5-": 1941,
      "pyrrolidin-2-yl": 1942,
      "nona": 1943,
      "azatetracyclo[": 1944,
      "[2-(4-": 1945,
      "18-": 1946,
      "S)-5-": 1947,
      "-1,3-diamine": 1948,
      "(3-phenyl": 1949,
      "-2-propan-2-yl": 1950,
      "hexanoic acid": 1951,
      "propanoyl)": 1952,
      "chloropyridin-2-yl)": 1953,
      "2-[[5-": 1954,
      "ir": 1955,
      "2-(aminomethyl)": 1956,
      "silane": 1957,
      "pyrimidin-2-yl)": 1958,
      "carbamimido": 1959,
      "1-(4-": 1960,
      "-2-(trifluoromethyl)": 1961,
      "l4": 1962,
      "-N-[4-(": 1963,
      "(4-ethylphenyl)": 1964,
      "purin": 1965,
      "cyclopenta[a]": 1966,
      "H51": 1967,
      "[PH]": 1968,
      "S)-4-": 1969,
      "6,6-": 1970,
      "-5-ylmethyl)": 1971,
      "pyrrolidine-2-carbonyl]amino]": 1972,
      "ethyl]-3-": 1973,
      "-2,3,4,": 1974,
      "N10": 1975,
      "8.0": 1976,
      "oxaspiro[": 1977,
      "fluoropyridin": 1978,
      "2-(5-": 1979,
      "methyl]-3-": 1980,
      "oxido": 1981,
      "b8": 1982,
      "-2,4-dimethyl": 1983,
      "-4,6-di": 1984,
      "-2,3-dimethyl": 1985,
      "-1,1-dioxo": 1986,
      "[[(2S)-1-": 1987,
      "(2S,3": 1988,
      "[(2R)": 1989,
      "[1,3]thiazolo[": 1990,
      "C41": 1991,
      "carbamoyl": 1992,
      "N-benzyl": 1993,
      "hydropyrrolo[3,4-": 1994,
      "1.": 1995,
      "-3,4-dihydro-2H-quinolin": 1996,
      "[(5": 1997,
      "[P+]": 1998,
      "-1-[2-": 1999,
      "(3,4-dimethoxyphenyl)": 2000,
      "4-[2-": 2001,
      "),2,": 2002,
      "(2-methylpropoxy)": 2003,
      "(2,5-dimethyl": 2004,
      "sulfonyl]": 2005,
      "bd": 2006,
      "acetyl)": 2007,
      "-[4-(": 2008,
      "4-[4-": 2009,
      "N-[1-(": 2010,
      "1-[5-": 2011,
      "-3-phenylpropanoyl]amino]": 2012,
      "tert-butyl N-[1-[": 2013,
      "),3,5,": 2014,
      "ambd": 2015,
      "ambda": 2016,
      "lambda": 2017,
      "2-[(2-": 2018,
      "bromomethyl)": 2019,
      "phenyl]benzamide": 2020,
      "butylamino)": 2021,
      "methyl]-2-methyl": 2022,
      "-N-(2-methyl": 2023,
      "-1,3,5-triazin": 2024,
      "-N-piperidin-4-yl": 2025,
      "pyrazolo[3,4-d]pyrimidin": 2026,
      "-5-amine": 2027,
      "butanoyl]": 2028,
      "tert-butyl N-[1-[[2-(": 2029,
      "-3,6-di": 2030,
      "5-trimethyl": 2031,
      "N-[[3-": 2032,
      "imidazol-2-yl)": 2033,
      "ethenyl": 2034,
      "phenoxy)propyl]": 2035,
      "[(1R)-1-": 2036,
      "pyridine-3-carbonitrile": 2037,
      "imidazol-1-yl": 2038,
      "C44": 2039,
      "carboximidamide;hydroiodide": 2040,
      "methyl 5-": 2041,
      "h17": 2042,
      "(1-aminoethyl)": 2043,
      "-3-(methylamino)": 2044,
      "b13": 2045,
      "-5-fluoro": 2046,
      "4,6-trimethyl": 2047,
      "[P+1]": 2048,
      "-N'-methyl": 2049,
      "-2,5-dioxo": 2050,
      "-2-oxoethyl)": 2051,
      "propylamino]": 2052,
      "-3-(trifluoromethyl)": 2053,
      "[(1S,2": 2054,
      "4-methoxy": 2055,
      "-6-methoxy": 2056,
      "tert-butyl(di": 2057,
      "-9,": 2058,
      "[(E)-2-": 2059,
      "1-[4-(": 2060,
      "[(4-chlorophenyl)": 2061,
      "2.2.": 2062,
      "hexanoyl]amino]": 2063,
      "10-di": 2064,
      "N-(6-": 2065,
      "methanone;dihydrochloride": 2066,
      "[Se]": 2067,
      "-2-methylpiperazin-1-yl]": 2068,
      "methylsulfanyl)": 2069,
      "(2-chloro": 2070,
      "pyrrolo[2,3-": 2071,
      "-3,9-dione": 2072,
      "3-dihydro": 2073,
      "3,3,3-": 2074,
      "sulfanylphenyl)": 2075,
      "-2-carbonitrile": 2076,
      "oxolan-2-yl)": 2077,
      "-1,3-dihydro": 2078,
      "-1H-chromeno[2,3-c]pyrrole": 2079,
      "-1H-chromeno[2,3-c]pyrrole-3,9-dione": 2080,
      "piperidine-1-carbonyl]": 2081,
      "ethynyl]": 2082,
      "t22": 2083,
      "b14": 2084,
      "-3-ethyl": 2085,
      "(1,3-thiazol": 2086,
      "phenanthren": 2087,
      "an-2-yl)": 2088,
      "[(2S)-2-": 2089,
      "R,13": 2090,
      "bicyclo[2.2.1]heptan": 2091,
      "-4-methylpentanoic acid": 2092,
      "-4-ethyl": 2093,
      "2-[(3-": 2094,
      "c29": 2095,
      " chloride": 2096,
      "azaspiro[2.5]octane": 2097,
      "4-[3-": 2098,
      "pyrazole-4-carboxamide": 2099,
      "pyrrolidin-3-yl)": 2100,
      "(4-aminophenyl)": 2101,
      "propan-1-one;hydrochloride": 2102,
      "S4": 2103,
      "-8-yl)": 2104,
      "(2R)": 2105,
      "-3-[2-": 2106,
      "iodophenyl)": 2107,
      "H52": 2108,
      "pyrimidin-4-yl)": 2109,
      "-1-oxopropan-2-yl]amino]": 2110,
      "silyl]oxy": 2111,
      "phenyl]sulfanyl": 2112,
      "-4,5,6,7-tetrahydro-1-benzo": 2113,
      "-2-(3-": 2114,
      "carbothio": 2115,
      "cyclobutyl]": 2116,
      "b7": 2117,
      "(2,4-dichlorophenyl)": 2118,
      "ethyl]-": 2119,
      "N-[(1-": 2120,
      "pyrazol-1-yl": 2121,
      "[1-[2-": 2122,
      "22,": 2123,
      "N-[[4-": 2124,
      "-3-methylbutanoyl]amino]": 2125,
      "[2-(dimethylamino)": 2126,
      "-2-(2-": 2127,
      "-4-[": 2128,
      "but-2-eno": 2129,
      "1,1-": 2130,
      "oxolan-2-ylmethyl)": 2131,
      "cyanophenyl)": 2132,
      "3,4-dimethoxyphenyl)": 2133,
      "3-[3-": 2134,
      "-3-(3-": 2135,
      "-1,3-thiazole-4-carboxamide": 2136,
      "imidazo[4,5-": 2137,
      "hydro-2H-1,5-": 2138,
      "f]": 2139,
      "-1,3,4-thiadiazol-2-yl)": 2140,
      "azabicyclo[4.": 2141,
      "5,6,6a-": 2142,
      "1-dioxothiolan-3-yl)": 2143,
      "benzoyl": 2144,
      "-4-methylpentanoyl]amino]": 2145,
      "oxolan-3-yl)": 2146,
      "trideca": 2147,
      "(1R,2": 2148,
      "S,6R)": 2149,
      "C48": 2150,
      "hydroxy-6-(hydroxymethyl)": 2151,
      "b15": 2152,
      "1-(1-": 2153,
      "hydroxy-3-": 2154,
      "2-[[2-[[2-": 2155,
      "benzyl ": 2156,
      "propan-2-yl]carbamate": 2157,
      "-1-[4-(": 2158,
      "pyrazol-4-yl)methyl]": 2159,
      "3'-": 2160,
      "butoxy)": 2161,
      "acetonitrile": 2162,
      "3-[4-": 2163,
      "thia-": 2164,
      "3a,4,5,6,7,7a-octa": 2165,
      "Z)-5-": 2166,
      "-7-methyl": 2167,
      "C3": 2168,
      "tert-butylphenyl)": 2169,
      "d][1,3]": 2170,
      "trifluoromethoxy)phenyl]": 2171,
      "S,9": 2172,
      "-6-azaspiro[2.5]octane": 2173,
      "[(4-fluorophenyl)": 2174,
      "-3-yl]oxy": 2175,
      "benzenesulfonamide;hydrochloride": 2176,
      "ont": 2177,
      "acont": 2178,
      "[2-(aminomethyl)": 2179,
      "tetrahydro-3H-": 2180,
      "oxo-": 2181,
      "pyrimidin-2-yl]": 2182,
      "t6": 2183,
      "pyridine-2-carboxamide": 2184,
      "-1H-imidazol": 2185,
      "benzothiazol-2-yl)": 2186,
      "4,6-dimethyl": 2187,
      "cyclopentan": 2188,
      "acetamide;dihydrochloride": 2189,
      "cyclopropane-1-carboxamide": 2190,
      "methylamino]methyl]": 2191,
      "S,13": 2192,
      "-N-(3-methyl": 2193,
      "pyrrolidin-1-yl]-": 2194,
      "b16": 2195,
      "[1]benzo": 2196,
      "4,4-": 2197,
      "-N-[5-": 2198,
      ",4": 2199,
      "-1,3-thiazolidine": 2200,
      "carbamic acid": 2201,
      "aR,6": 2202,
      "2-ethyl": 2203,
      "9b-": 2204,
      "3,4,5-tri": 2205,
      "-5-methylphenyl)": 2206,
      "ene-1-": 2207,
      "[6-(": 2208,
      "aminomethyl)cyclopentyl]": 2209,
      "2.0]": 2210,
      "-1,3-thiazol-5-yl)": 2211,
      "-1H-indol-3-yl)": 2212,
      "-3-methylbutanoic acid": 2213,
      "5,6,7,8,8a-": 2214,
      "4'-": 2215,
      "N-[[5-": 2216,
      "morpholin-4-yl]": 2217,
      "bromothiophen-2-yl)": 2218,
      "ethylaminomethyl)": 2219,
      "(1S,2": 2220,
      "N-cyclopropyl": 2221,
      "[NH+]": 2222,
      "-N-(2-hydroxy": 2223,
      "-1,3-dione": 2224,
      "-3-methyl-1-oxobutan-2-yl]": 2225,
      "cyclopropylmethyl)": 2226,
      "silyl": 2227,
      "-4-methylsulfanylbutanoyl]amino]": 2228,
      "5-chloro": 2229,
      "19-": 2230,
      "methyl]benzamide": 2231,
      "t23": 2232,
      "pent-4-": 2233,
      "2,4-di": 2234,
      "20,": 2235,
      "-6-one": 2236,
      "N-(2-amino": 2237,
      ".0.03,": 2238,
      "(3,4-dihydro-2H-": 2239,
      "cyclobutan": 2240,
      "benzylamino)": 2241,
      "ethyl 2-": 2242,
      "pyrrolidine-3-carboxylic acid": 2243,
      "C43": 2244,
      "11.": 2245,
      "propanamide;dihydrochloride": 2246,
      "methyl)phenyl]": 2247,
      "[(2S)-1-": 2248,
      "-3-[4-": 2249,
      "-4-yl]amino]": 2250,
      "[1,2,4]triazolo[4,3-a]": 2251,
      "fluoro-4-methoxyphenyl)": 2252,
      "14S,": 2253,
      "thiophen-2-ylmethyl)": 2254,
      "benzenesulfon": 2255,
      "-phenyl": 2256,
      "phosphanium": 2257,
      "(2,4-dimethylphenyl)": 2258,
      "(1-phenyl": 2259,
      "6-(": 2260,
      "pyrazole-3-carboxamide": 2261,
      "-9-yl)": 2262,
      "S,4S,5": 2263,
      "3,2-": 2264,
      "9H-": 2265,
      "(3-ethyl": 2266,
      "-4-propan-2-yl": 2267,
      "-17-": 2268,
      "ethane-1,2-diamine": 2269,
      "amido)": 2270,
      "-N-[(2-": 2271,
      "-1,3,4-oxadiazol-2-yl]": 2272,
      "2-methoxy": 2273,
      "b17": 2274,
      "4-triazol": 2275,
      "sulfinyl": 2276,
      "-3,4-dihydro": 2277,
      "[3-(methylaminomethyl)": 2278,
      "[(2-methylpropan-2-yl)oxy]": 2279,
      "-3-hydroxypropanoyl]amino]": 2280,
      "[Na+]": 2281,
      "[Na+1]": 2282,
      "cyclohexa": 2283,
      "-1,2,3,4-tetrahydro": 2284,
      "-4-oxobutanoyl]amino]": 2285,
      "naphthalen-2-yl)": 2286,
      "(2,2-difluoro": 2287,
      "C46": 2288,
      "2-[4-(": 2289,
      "-1-piperidin-4-yl": 2290,
      "propanoyl": 2291,
      "pyridine-4-carboxamide": 2292,
      "butanoylamino)": 2293,
      "-1-oxopentan-2-yl]carbamate": 2294,
      "-1H-1,2,4-triazol": 2295,
      "-N-(5-": 2296,
      "hexahydro-1H-": 2297,
      "S,4R,5": 2298,
      "thiophene-3-carboxamide": 2299,
      "-3-carboxy": 2300,
      "tert-butylamino)": 2301,
      "benzodiazepin": 2302,
      "pyridin-1-ium": 2303,
      "oxamide": 2304,
      "pentanamide;hydrochloride": 2305,
      "cyclopentane": 2306,
      "methyl-4-": 2307,
      "[2-[4-": 2308,
      "-1-hydroxy": 2309,
      "-4-methylpiperidin-1-yl)": 2310,
      ")-": 2311,
      "-1H-pyrrole": 2312,
      "-5-oxopentanoyl]amino]": 2313,
      "piperidine-4-carboxylic acid": 2314,
      "(2,5-dimethylphenyl)": 2315,
      "N-[": 2316,
      "-2,6-dioxo": 2317,
      "4.0.02,": 2318,
      "8,10,": 2319,
      "fluoro-2-methyl": 2320,
      "2-bromo": 2321,
      "(2R,3": 2322,
      "(1-hydroxy": 2323,
      "isoindole": 2324,
      "-2-(hydroxymethyl)": 2325,
      "pyridin-2-ylmethyl)": 2326,
      "-3-[": 2327,
      "-hydroxy": 2328,
      "-3-sulfanylpropanoyl]amino]": 2329,
      "piperidin-4-amine": 2330,
      "-1-[2-(": 2331,
      "6,7,": 2332,
      "N-(8-azabicyclo[3.2.1]octan-3-yl)": 2333,
      "pentanoate": 2334,
      "H53": 2335,
      "H54": 2336,
      "[3-[": 2337,
      "b6": 2338,
      "-7-one": 2339,
      "E)-5-": 2340,
      "(3-methoxypropoxy)": 2341,
      "N-(2-aminoethyl)": 2342,
      "pyrimidin-2-yl": 2343,
      "1,3-thiazol": 2344,
      "-2-oxoethyl]amino]": 2345,
      "[(2-chlorophenyl)": 2346,
      "tert-butyl N-[2-": 2347,
      "propane-1,3-diamine": 2348,
      "tert-butyl(dimethyl)": 2349,
      "3-methoxy": 2350,
      "(4-propan-2-ylphenyl)": 2351,
      "2-chloro-N-": 2352,
      "[(4-methylphenyl)methyl]": 2353,
      "cyclohexan-1-ol": 2354,
      "-1,3-thiazolidin-4-one": 2355,
      "decyl": 2356,
      "fluoro-5-": 2357,
      "decano": 2358,
      "naphthalen-1-yl)": 2359,
      "3.1]": 2360,
      "(8": 2361,
      "-3-[3-": 2362,
      "R,6R)": 2363,
      "2.2.2]": 2364,
      "chloropyr": 2365,
      "-6": 2366,
      "imine": 2367,
      "diaz": 2368,
      "5,9b-": 2369,
      "6,7,8,": 2370,
      "-1-oxo-3-phenyl": 2371,
      "pyridin-4-yl]": 2372,
      "-1,3-dimethyl": 2373,
      "S)-6-": 2374,
      "[1-[4-": 2375,
      "-2-(5-": 2376,
      "pyrimidin-4-amine": 2377,
      "prop-1-en": 2378,
      "oxolan-2-yl": 2379,
      "(2-phenylethyl)": 2380,
      "fluoropropan": 2381,
      "thiophene-2-carboxylate": 2382,
      "cyclopenta[a]phenanthren": 2383,
      "-N-[2-(methylamino)ethyl]": 2384,
      "20-": 2385,
      "6-fluoro": 2386,
      "nitropyridin": 2387,
      "b18": 2388,
      "8-tri": 2389,
      "-3-methylpentanoyl]amino]": 2390,
      "8.": 2391,
      "pyridazine": 2392,
      "(4-hydroxy": 2393,
      "6-chloro": 2394,
      "2,2-dimethyl": 2395,
      "(2-hydroxyethyl)": 2396,
      "2-chloro": 2397,
      "-2,6-dimethyl": 2398,
      "(1-methoxy": 2399,
      "[(4-fluorophenyl)methyl]": 2400,
      "N-[(5-": 2401,
      "oxet": 2402,
      "octyl": 2403,
      "N-(2-amino-1-": 2404,
      "[(3,5-di": 2405,
      "4,6-di": 2406,
      "hexanoylamino)": 2407,
      "3,4,4a,": 2408,
      "pyridin-4-yl)": 2409,
      "5]un": 2410,
      "(2,2,2-trifluoroethyl)": 2411,
      "11-di": 2412,
      "[SH]": 2413,
      "-1,3-thiazole": 2414,
      "pyrazole-4-": 2415,
      "-6-phenyl": 2416,
      "-3-(4-hydroxyphenyl)propanoyl]amino]": 2417,
      "tert-butyl N-[1-[[1-": 2418,
      "cyclohexane-1-carboxylic acid": 2419,
      "-2,5-dione": 2420,
      "-3-fluoro": 2421,
      "benzimidazol-1-yl)": 2422,
      "[[5-(": 2423,
      "sulfanylmethyl)": 2424,
      " 3-": 2425,
      "-2,2,": 2426,
      "-N-[(1-": 2427,
      "quinoxalin": 2428,
      "1,3-di": 2429,
      "R,10": 2430,
      "hydroxy-2-": 2431,
      "indene": 2432,
      "-1-propan-2-yl": 2433,
      "-N-methylmethanamine": 2434,
      "[B]": 2435,
      "pyrimidin-4-yl]": 2436,
      "pyridin-3-ylmethyl)": 2437,
      "-1,4-diazepan": 2438,
      "naphthyr": 2439,
      "iz": 2440,
      "(2,3-dihydro-1,4-benzodioxin-6-yl)": 2441,
      "1.0]": 2442,
      "-3-(1H-indol-3-yl)propanoyl]amino]": 2443,
      "13-dimethyl": 2444,
      "benzimidazol-1-yl]": 2445,
      "-2-carbonyl)amino]": 2446,
      "hydro-4H-": 2447,
      "12,14,15,": 2448,
      "(1,3-benzodioxol-5-yl)": 2449,
      ".04,9": 2450,
      "butan-2-amine": 2451,
      "-N-[(3-": 2452,
      "tetradeca": 2453,
      "sulfonylamino)": 2454,
      "1H-indol-3-yl)": 2455,
      "b19": 2456,
      "icos": 2457,
      "2,2,2-trifluoro": 2458,
      "[(4-methoxyphenyl)methyl]": 2459,
      "[3-(dimethylamino)": 2460,
      "-3-hydroxybutanoyl]amino]": 2461,
      "tetrahydro-3H-cyclopenta[c]": 2462,
      "-1,2,4-triazol-3-yl)sulfanyl]": 2463,
      "[Cl-]": 2464,
      "[Cl-1]": 2465,
      "(3,4-dichlorophenyl)": 2466,
      "5,9b-tetrahydro-3H-cyclopenta[c]": 2467,
      "-1,4-benzoxazin": 2468,
      "carbazole": 2469,
      "fluoropyr": 2470,
      "phosphan": 2471,
      "[1-(3-": 2472,
      "4.4]": 2473,
      "-3-(2-": 2474,
      "oxan-4-yl]": 2475,
      "5-bis(": 2476,
      "-3a,4,5,9b-tetrahydro-3H-cyclopenta[c]": 2477,
      "C45": 2478,
      "phenoxy)butyl]": 2479,
      "7-dihydro-5H-": 2480,
      "butanoylamino]": 2481,
      "methyl]-2-": 2482,
      "hexan-2-yl)": 2483,
      "t24": 2484,
      "piperidine-1-carbonyl)": 2485,
      "5.5]un": 2486,
      "thione": 2487,
      "prop-1-enyl]": 2488,
      "7H-": 2489,
      "9,10,": 2490,
      "-2-cyano": 2491,
      "N-[[2-": 2492,
      "-(2-methyl": 2493,
      "-3,4,4a,": 2494,
      "4,5-dimethyl": 2495,
      "-8-yl]": 2496,
      "-[2-(": 2497,
      "acosa-1(": 2498,
      "ethyl]-2-methyl": 2499,
      "oxoisoindol": 2500,
      "[1,3]thiazolo[3,2-": 2501,
      "imidazolidine": 2502,
      "[2,1-b]": 2503,
      "phenyl]phenyl]": 2504,
      "[1,3,": 2505,
      "ethoxy-4-": 2506,
      "octahydro": 2507,
      "1-ethyl": 2508,
      "[4-[4-": 2509,
      "(4-nitrophenyl)": 2510,
      "(1-ethyl": 2511,
      "-1,3-thiazole-5-": 2512,
      "dioate": 2513,
      "2-[5-": 2514,
      "3,5-trimethyl": 2515,
      "(1S)": 2516,
      "-ethylamino]": 2517,
      "azapentacyclo[": 2518,
      "pyrazole": 2519,
      "(2-aminopropanoylamino)": 2520,
      "(2,4-difluorophenyl)": 2521,
      "phosphon": 2522,
      "9-dimethyl": 2523,
      "-6-(trifluoromethyl)": 2524,
      "7.0.02,": 2525,
      "-1-phenylethyl]": 2526,
      "6,6-tetramethyl": 2527,
      "b][1,4]": 2528,
      "pyridine-4-": 2529,
      "O13": 2530,
      "-3-sulfanylpropanoyl)amino]": 2531,
      "-2-methylpropanoic acid": 2532,
      "benzamido": 2533,
      "-5-propan-2-yl": 2534,
      "5-bromo-2-": 2535,
      "-1,3-thiazole-5-carboxamide": 2536,
      "-1-(2-methyl": 2537,
      "3-chloro-4-": 2538,
      "-1'-": 2539,
      "[(1-carboxy": 2540,
      "chloroprop": 2541,
      "phenyl]-3-": 2542,
      "2-[(5-": 2543,
      "aminohexanoylamino)": 2544,
      "indol-3-yl]": 2545,
      "thiomorpholin-3-yl": 2546,
      "-13-": 2547,
      "piperidine-1-carboxylate": 2548,
      "-9-yl": 2549,
      "thieno[2,3-d]pyrimidine": 2550,
      "piperazin-1-yl]methanone": 2551,
      "[[2-amino-3-(1H-imidazol-5-yl)propanoyl]amino]": 2552,
      "21,": 2553,
      "phenoxy]acetic acid": 2554,
      "-3,5-diamine": 2555,
      "piperidin-2-yl]": 2556,
      "idene]amino]": 2557,
      "b20": 2558,
      "epin": 2559,
      "bicyclo[2.2.1]heptane": 2560,
      "carbothioamide": 2561,
      "5,4-": 2562,
      "[(3R)-3-": 2563,
      "amino-2-[(2-amino": 2564,
      "[4-(trifluoromethyl)phenyl]": 2565,
      "amino-5-oxo": 2566,
      ".01,": 2567,
      "(2-oxopyrrolidin-1-yl)": 2568,
      "azido": 2569,
      "oxymethyl)": 2570,
      "-[3-": 2571,
      "-[1,2,4]triazolo[1,5-a]": 2572,
      "(1,3-dimethyl": 2573,
      "23,": 2574,
      "phthal": 2575,
      "5,6-dimethyl": 2576,
      "5-[": 2577,
      "-5-oxopyrrolidine-3-carboxamide": 2578,
      "[4-(aminomethyl)": 2579,
      "4-bromo": 2580,
      "10.": 2581,
      "indol-1-yl]": 2582,
      "3-amino-4-": 2583,
      "butan-1-ol": 2584,
      "c]pyridine": 2585,
      "pyrazol-1-yl]": 2586,
      "um;": 2587,
      "-4-methylpentyl)": 2588,
      "difluoromethoxy)phenyl]": 2589,
      "piperidin-1-yl]methanone": 2590,
      "nitrophenoxy)": 2591,
      "furo[3,2-": 2592,
      "-3-phenylpropanoic acid": 2593,
      "oxo-2-(": 2594,
      "piperidine-2-carboxamide": 2595,
      "tert-butyl(dimethyl)silyl]oxy": 2596,
      "16,17-": 2597,
      "[=N-": 2598,
      "[=N-1]": 2599,
      "[2-(methylamino)ethyl]": 2600,
      "pyrrol-3-yl]": 2601,
      "5-bis": 2602,
      "-1,2,4-oxadiazole": 2603,
      "-1-ethyl": 2604,
      "decaene": 2605,
      "b5": 2606,
      "b21": 2607,
      "piperidine-3-carboxamide;hydrochloride": 2608,
      "pyrido[2,3-": 2609,
      "naphthalen-1-yl]": 2610,
      "bromophenyl)methyl]": 2611,
      "[3-(aminomethyl)": 2612,
      "-7-oxo": 2613,
      "ane-1-carboxylate": 2614,
      "[(4-methoxyphenyl)": 2615,
      "5-amino": 2616,
      "prop-2-enoic acid": 2617,
      "sulfamoyl": 2618,
      "propan-2-ylamino]": 2619,
      "[(2,6-di": 2620,
      "9.": 2621,
      "isoquinoline": 2622,
      "morpholine-4-": 2623,
      "pyrrolidine-2-carboxamide;hydrochloride": 2624,
      "2.1.02,": 2625,
      "-N-methylacetamide": 2626,
      "[(3S)-": 2627,
      "24,": 2628,
      "F7": 2629,
      "(4-fluoro": 2630,
      "tetrahydropyr": 2631,
      "b22": 2632,
      "rol": 2633,
      "O14": 2634,
      "-2,3-dione": 2635,
      "-3-methylpentanoyl)amino]": 2636,
      "-9-yl]": 2637,
      "(7": 2638,
      "[2-(1-": 2639,
      "c30": 2640,
      "cyclohexan-1-amine": 2641,
      "(3,5-dimethylphenyl)": 2642,
      "anthr": 2643,
      "carbamothioylamino]": 2644,
      "g]": 2645,
      "triazole-4-carboxylate": 2646,
      "[[(2S)-2-[[(2S)-2-": 2647,
      "prop-2-enoyl]amino]": 2648,
      "methyl]ethanamine": 2649,
      "(4-hydroxyphenyl)": 2650,
      "-2,3-dihydro-1H-inden": 2651,
      "1-[": 2652,
      "anilino)methyl]": 2653,
      "(1,3-benzodioxol": 2654,
      "hexacyclo[": 2655,
      "-12-": 2656,
      "-1,4-thiazin": 2657,
      "4,5,": 2658,
      "cyclopropylamino)": 2659,
      "(1,4-di": 2660,
      "but-3-": 2661,
      "8-dimethyl": 2662,
      "-N-methylbenzamide": 2663,
      "-3-carbonyl)": 2664,
      "(2,4,6-trimethyl": 2665,
      "t25": 2666,
      "-1,2-oxazol-4-yl)": 2667,
      "-8-yl": 2668,
      "1H-indol": 2669,
      "oxir": 2670,
      "anthrac": 2671,
      "H56": 2672,
      "-N-[3-(": 2673,
      "phenoxy)acetyl]amino]": 2674,
      "(2-bromo": 2675,
      "formyl": 2676,
      "-3-propan-2-yl": 2677,
      "tert-butyl N-[4-": 2678,
      "+)": 2679,
      "%12": 2680,
      "-6,7-di": 2681,
      "-8,": 2682,
      "-2-[[2-": 2683,
      "cyclohexylamino)": 2684,
      "methyl-methylamino]": 2685,
      "sulfonyl chloride": 2686,
      "(4-phenylphenyl)": 2687,
      "-3-methylbutanamide": 2688,
      "diox": 2689,
      "-1-[3-": 2690,
      "cyclohexane-1-carboxamide;hydrochloride": 2691,
      "1-benzyl": 2692,
      "propoxyphenyl)": 2693,
      "hexahydro-2H-": 2694,
      "piperidine-4-carboxamide;hydrochloride": 2695,
      "-3-nitrobenzamide": 2696,
      "1,1,": 2697,
      "prop-2-enyl]": 2698,
      "N-(4-amino": 2699,
      "-3-phenylpropanamide": 2700,
      "-2-(methylamino)": 2701,
      "3a,4,5,6,6a-": 2702,
      "-4,5-dihydro": 2703,
      "butyl)amino]": 2704,
      "-3,4-dimethyl": 2705,
      "ethynyl": 2706,
      "e-3,5-diamine": 2707,
      "benzimidazol-2-yl]ethyl]": 2708,
      "3-ethyl": 2709,
      "azepine": 2710,
      "-2-ylidene)": 2711,
      "benzimidazol-2-yl]propyl]": 2712,
      "methyl 2-[[2-": 2713,
      "-1-piperidin-4-yltriazole-4-carboxamide": 2714,
      "2-fluoro": 2715,
      "[(E)-3-": 2716,
      "piperidin-3-yl)": 2717,
      "hydroxy-3-methyl": 2718,
      "dimethylsulfamoyl)": 2719,
      "5'-": 2720,
      "azaspiro[4.5]decan": 2721,
      "3-amino-5-": 2722,
      "(2,3-dihydro-1H-inden": 2723,
      "gen": 2724,
      "[Z": 2725,
      "(1,3-di": 2726,
      "methoxybenzamide": 2727,
      "5-bromo-N-": 2728,
      "-1H-indole": 2729,
      "6-bromo": 2730,
      "prop-2-en-1-one": 2731,
      "cyclopentane-1-carboxylic acid": 2732,
      "-3H": 2733,
      "hydroxy-2-methyl": 2734,
      "(3-methylbutoxy)": 2735,
      "-1-yn": 2736,
      "acos": 2737,
      "hydrazinyl]": 2738,
      "en-1-yl": 2739,
      "-4-prop-2-enyl": 2740,
      "7-chloro": 2741,
      "carbamoyl)phenyl]": 2742,
      "amino-5-oxopentanoyl)amino]": 2743,
      "benzazepin": 2744,
      "[(3-amino": 2745,
      "[[(2R,3": 2746,
      "[(2,5-diamino-5-oxopentanoyl)amino]": 2747,
      "6-amino": 2748,
      "2-(8-azabicyclo[3.2.1]octan-3-yl)": 2749,
      "-1,2-diol": 2750,
      "anilino)-1-": 2751,
      "(1,1-dioxothiolan-3-yl)": 2752,
      "ethoxy]phenyl]": 2753,
      "-1,2-oxazol-3-yl)": 2754,
      "4-fluoro": 2755,
      "(4-methylpiperidin-1-yl)": 2756,
      "b23": 2757,
      "3,3-tetra": 2758,
      "(2S)-1-": 2759,
      "piperazin-1-yl]-": 2760,
      ".03,8.0": 2761,
      "butanedioic acid": 2762,
      "E)-2-": 2763,
      "an-3-yl": 2764,
      "-5,6,7,8-tetrahydro-": 2765,
      "h18": 2766,
      "3-[[2-": 2767,
      "methanesulfonamido)": 2768,
      "13,15,": 2769,
      "(2,3-dimethylphenyl)": 2770,
      "azaspiro[5.5]un": 2771,
      "-3-methylpentanoic acid": 2772,
      "methyl-1-": 2773,
      "12-di": 2774,
      "S,12": 2775,
      "cyclopentane-1-carboxamide;hydrochloride": 2776,
      "-dimethyl": 2777,
      "benzotriazol": 2778,
      "-3-phenylpropanoate": 2779,
      "-6-fluoro": 2780,
      "ethoxymethyl)": 2781,
      "an-4-yl)": 2782,
      "diphenyl": 2783,
      "gen ": 2784,
      "10,13-dimethyl": 2785,
      "-1-propyl": 2786,
      "-N-[(1-methyl": 2787,
      "fluoro-4-methylphenyl)": 2788,
      "-2-methylpropyl]": 2789,
      "9,11,12,14,15,": 2790,
      "C52": 2791,
      "-N-(4-methyl": 2792,
      "4-amino": 2793,
      "carbonate": 2794,
      "-1,5-dioxo": 2795,
      "-1,2,4-triazole-3-": 2796,
      "morpholin-2-yl]": 2797,
      "-1,4-dioxo": 2798,
      "imidin": 2799,
      "]hexa": 2800,
      "(4-ethoxyphenyl)": 2801,
      "-2-oxo-1H-": 2802,
      "furan-3-yl)": 2803,
      "en-1-yl]": 2804,
      "(3,4,5-tri": 2805,
      "-2,3-dihydroindol-1-yl)": 2806,
      "3-bromo": 2807,
      "-1,2-thiazole-3,5-diamine": 2808,
      "-1,3-oxazolidin": 2809,
      "(2R)-2-amino-N-": 2810,
      "c31": 2811,
      "-4H": 2812,
      "ethyl(": 2813,
      "pentanoyl]": 2814,
      "[(4-chlorophenyl)methyl]": 2815,
      "-3,3,3-": 2816,
      "cyclopropanamine": 2817,
      "[(4a": 2818,
      "[1-[3-": 2819,
      "-2,3-dihydro-1H-": 2820,
      "oxymethyl]": 2821,
      "-2-methylsulfanyl": 2822,
      "-4,4-dimethyl": 2823,
      "imidazol-4-yl)": 2824,
      "-5,6-dihydro-4H-": 2825,
      "tetrazol-1-yl)": 2826,
      "H55": 2827,
      "pyrrolidine-1-carbonyl]": 2828,
      "at": 2829,
      "hydrogen ": 2830,
      "propanenitrile": 2831,
      "[(2-fluorophenyl)": 2832,
      "tetrazol-5-yl]": 2833,
      "din": 2834,
      "cyclopropyl)methyl]": 2835,
      "7-methyl": 2836,
      "3,5,6-": 2837,
      "[(3S)-piperidin-3-yl]": 2838,
      "chloro-4-methylthiophen-2-yl)": 2839,
      "azabicyclo[2.2.2]": 2840,
      "h19": 2841,
      "phenoxy)acetamide": 2842,
      "[1,2]": 2843,
      "azaspiro[4.5]decane": 2844,
      "-3-nitrophenyl)": 2845,
      "4-chloro": 2846,
      "phenyl]ethyl]": 2847,
      "-2-[3-": 2848,
      "[(Z)-": 2849,
      "-N-prop-2-enyl": 2850,
      "pentan-1-one": 2851,
      "C49": 2852,
      "pyridin-2-yl)methyl]": 2853,
      "ethynylphenyl)": 2854,
      "ethylphenyl)": 2855,
      "piperazin-1-ylethyl)": 2856,
      "3a,": 2857,
      "H58": 2858,
      "[methyl-": 2859,
      "-1-[5-": 2860,
      "2-(1-": 2861,
      "1+1]": 2862,
      ".05,": 2863,
      "azabicyclo[4.2.1]": 2864,
      "tetrahydro-1H-": 2865,
      "-1-yl)methyl]": 2866,
      "phosphoryl]oxy": 2867,
      "butan-2-ol": 2868,
      "N,N-dimethyl": 2869,
      "benzenecarboximidamide": 2870,
      "[(3-methoxy": 2871,
      "benzohydrazide": 2872,
      "9-tri": 2873,
      "chloro-5-fluorophenyl)": 2874,
      "prop-2-ynyl": 2875,
      "N-(2-amino-2-cyclopropylethyl)": 2876,
      "pyrimidin-5-yl]": 2877,
      "-4-[4-": 2878,
      "[[(2S)": 2879,
      "C50": 2880,
      "piperidin-3-ylmethyl)": 2881,
      "propane-1,2-diamine": 2882,
      "-2-carbonylamino)": 2883,
      "-N-[1-(": 2884,
      "cyclopropylmethoxy)": 2885,
      "t5": 2886,
      "azatricyclo[7.3": 2887,
      "-2-ene": 2888,
      "(3-chloro-4-": 2889,
      "4-triazol-1-yl)": 2890,
      "-3-hydroxybutanoyl)amino]": 2891,
      "-4-ylmethyl)": 2892,
      "propylamino)ethyl]": 2893,
      "2'-": 2894,
      "hydro-2H-quinolin": 2895,
      "4-N-": 2896,
      "-2-thiophen-2-yl": 2897,
      "pyridin-3-yl)methyl]": 2898,
      "brom": 2899,
      "ethylsulfanyl": 2900,
      "14.": 2901,
      "-3-pyrrolidin-3-yl": 2902,
      "(2,6-dimethylphenyl)": 2903,
      "butanamide;dihydrochloride": 2904,
      "-5-(trifluoromethyl)phenyl]": 2905,
      "-2-yl)phenyl]": 2906,
      "21-": 2907,
      "nitropyridine": 2908,
      "pyrimidin-5-yl)": 2909,
      "3-bromo-4-": 2910,
      "pentan-3-yl": 2911,
      "-6,7-dihydro-5H-": 2912,
      "9H-fluoren": 2913,
      ".04,9.0": 2914,
      ",5": 2915,
      "(1-methylpyrazol-3-yl)": 2916,
      "3.1]nonan": 2917,
      "-2,2-dimethylpropyl)": 2918,
      "4-chloro-N-": 2919,
      "quinazoline": 2920,
      "C47": 2921,
      "-1,4-dioxobutan-2-yl]": 2922,
      "4-amino-5-": 2923,
      "-2-(2-methyl": 2924,
      "(3-bromo": 2925,
      "-N-(2-methoxyethyl)": 2926,
      "]-2": 2927,
      "[1-(2-": 2928,
      "ato": 2929,
      "-2-methylpropan-2-yl)": 2930,
      "heptano": 2931,
      "C54": 2932,
      "8]": 2933,
      "furan-2-carboxylic acid": 2934,
      "N-[[4-(": 2935,
      "b25": 2936,
      "[2-(2-": 2937,
      "),4,": 2938,
      "thiophene-2-carboxylic acid": 2939,
      "[(3R)-3-amino": 2940,
      "methylsulfamoyl)": 2941,
      "-4-ol": 2942,
      "N-tert-butyl": 2943,
      "-4H-": 2944,
      "-3,4-dihydroxy": 2945,
      "b24": 2946,
      "-1,5-dioxopentan-2-yl]": 2947,
      "5-tetramethyl": 2948,
      "-1-oxopentan-2-yl]amino]": 2949,
      "oxane-4-carboxamide": 2950,
      "hydro-2H-1,5-benzodiox": 2951,
      "piperazine-1-carbonyl]": 2952,
      "sulfanylacetamide": 2953,
      "[(2S,3R,4S,5": 2954,
      "pentanedioic acid": 2955,
      "ethio": 2956,
      "pyrimidin-1-yl)": 2957,
      "-6-carboxylate": 2958,
      "-4-methylsulfanyl-1-oxobutan-2-yl]": 2959,
      "pentan-2-ylamino)": 2960,
      "pentylamino)": 2961,
      "-2,3,3a,4,5,6,7,7a-octa": 2962,
      "-3,6-dihydro-2H-": 2963,
      "phenyl] ": 2964,
      "-4-carboxy": 2965,
      "(4-bromo-2-": 2966,
      "N-(azetidin": 2967,
      ";2,2,2-trifluoro": 2968,
      "benzimidazol-2-yl]pentyl]": 2969,
      "t26": 2970,
      "b4": 2971,
      "-1,1-": 2972,
      "tris": 2973,
      "4,5-tetrahydro": 2974,
      "methanamine;hydrochloride": 2975,
      "S,11": 2976,
      "-2-yl]methyl]": 2977,
      "-2-[2-(": 2978,
      "cyclohexyl)methyl]": 2979,
      "phthalazin": 2980,
      "3-bromo-N-": 2981,
      "amino-1-[4-": 2982,
      "naphthalene-1-": 2983,
      "propan-2-ylphenyl)": 2984,
      "uter": 2985,
      "-2-morpholin-4-yl": 2986,
      "methylsulfonyl]": 2987,
      "3-chloro-N-": 2988,
      "[7-": 2989,
      "3,3-dimethyl": 2990,
      "pyridazin-3-yl)": 2991,
      "-2,3-dihydroindol": 2992,
      "trimethylsilyl": 2993,
      "-2,3-dihydro-1-benzofuran": 2994,
      "[[2-amino-5-(diaminomethylideneamino)pentanoyl]amino]": 2995,
      "uterio": 2996,
      "ethylamino)ethyl]": 2997,
      "),4,6,": 2998,
      "(1R)-1-": 2999,
      "14S,17": 3000,
      "(2,2-difluoroethoxy)": 3001,
      "-2-[(4-": 3002,
      "[1,3,4]": 3003,
      "ethylsulfanyl]": 3004,
      "-3-carbonyl]amino]": 3005,
      "triazole-4-carboxylic acid": 3006,
      "-2-methylpropanamide": 3007,
      "-1-oxo-3-sulfanyl": 3008,
      "nonane": 3009,
      "methyl 2-[": 3010,
      "(2,4,6-trimethylphenyl)": 3011,
      "ethoxycyclobutyl)": 3012,
      "-3-methoxyphenyl)": 3013,
      "-2-ylidene]": 3014,
      "N-(2-methyl": 3015,
      "heptacyclo[": 3016,
      "O17": 3017,
      "methyl)phenyl]methyl]": 3018,
      "thiadi": 3019,
      "propyl]amino]": 3020,
      "[(1-ethyl": 3021,
      "-6,7-dihydro-4H-": 3022,
      "azatricyclo[6.": 3023,
      "-1,4,": 3024,
      "-3-methylbenzamide": 3025,
      "2,5-di": 3026,
      "-2,5-dioxoimidazolidin": 3027,
      "[(2-chlorophenyl)methyl]": 3028,
      "(2,5-dimethoxyphenyl)": 3029,
      "izin": 3030,
      "tert-butyl 3-": 3031,
      "-7-(": 3032,
      "-2-propyl": 3033,
      "-3-(2-methyl": 3034,
      "-3a,4,5,9b-tetrahydro-3H-cyclopenta[c]quinoline": 3035,
      ".0.03,7]": 3036,
      ";2,2,2-trifluoroacetic acid": 3037,
      "5,6,7,8,8a-octa": 3038,
      "-N-(2-methylpropyl)": 3039,
      "8,11,": 3040,
      "(4-chlorophenyl)sulfonyl": 3041,
      "piperidin-3-ylethyl)": 3042,
      "hydroxy-4-": 3043,
      "25,": 3044,
      "2,6-di": 3045,
      "(1-amino": 3046,
      "c2": 3047,
      "phenylmethoxymethyl)": 3048,
      "-2-chloro": 3049,
      "6-diaminohexanoylamino)": 3050,
      "rene": 3051,
      "N-(azetidin-3-ylmethyl)": 3052,
      "15-di": 3053,
      "-N-[[4-(": 3054,
      "cyclopenta[b]": 3055,
      "hen": 3056,
      "indol-2-one": 3057,
      "pyrrolidin-2-ylmethyl)": 3058,
      "-4-methylsulfonyl": 3059,
      "[(2R)-2-": 3060,
      "e-1-carboxamide": 3061,
      "morpholin-4-ylethyl)": 3062,
      "4,4-dimethyl": 3063,
      "(3,3-dimethyl": 3064,
      "-5-(difluoromethyl)": 3065,
      "[2-[2-[2-[2-": 3066,
      "-2-(4-methylphenyl)": 3067,
      "3.1": 3068,
      "butan-1-one;hydrochloride": 3069,
      "but-2-enoic acid": 3070,
      "pyridin-2-one": 3071,
      "bicyclo[4.": 3072,
      "phenylmethoxy)": 3073,
      "[(2R,3R,4S,5": 3074,
      "-2-[4-(": 3075,
      "carbamoyl]phenyl]": 3076,
      "8-dihydro-": 3077,
      "prop-2-enyl)": 3078,
      "2-[(": 3079,
      "oxazolo[": 3080,
      "[[(3": 3081,
      "-2-carbonyl]": 3082,
      "rox": 3083,
      "sulfo": 3084,
      "chloro-2-methoxy": 3085,
      "[(2-methoxy": 3086,
      "yloxy)": 3087,
      "-2-yl]amino]": 3088,
      "methoxy]phenyl]methyl]": 3089,
      "sodi": 3090,
      "phosphate": 3091,
      "-1,2,3,": 3092,
      "N-[3-[1-": 3093,
      "silyl]": 3094,
      "pyrrolidin-3-ylethyl)": 3095,
      "pyridazin-3-one": 3096,
      "oxaspiro[4.5]": 3097,
      "-4-chloro": 3098,
      "azepan-1-yl": 3099,
      "-7-carboxamide": 3100,
      "16,18,": 3101,
      "enoate": 3102,
      "-2,6-diamine": 3103,
      "-2-pyrrolidin-1-yl": 3104,
      "[[1-[[1-": 3105,
      "pyrimidine-2,4-dione": 3106,
      "pyrido[1,2-a]": 3107,
      "pyrrol-2-yl)": 3108,
      "3-[(4-": 3109,
      "naphthalen-2-yl]": 3110,
      "(3-bromophenyl)": 3111,
      "3-bromo-5-": 3112,
      "pentan-3-yl)": 3113,
      "R,12": 3114,
      "furan-2-yl": 3115,
      "-1H-1,2,4-triazol-3-yl]": 3116,
      "[(6-methyl": 3117,
      "-2-(3-methyl": 3118,
      "quinolin-4-yl)": 3119,
      "(4-fluorophenyl)sulfonyl": 3120,
      "quinolin-2-one": 3121,
      "hydroxy-6-(hydroxymethyl)oxan-2-yl]oxy": 3122,
      "isoindole-1,3-dione": 3123,
      "-2-oxoethyl] ": 3124,
      "diazenyl]": 3125,
      "trifluoromethyl)phenyl]methyl]": 3126,
      "pentan-1-amine": 3127,
      "triacont": 3128,
      "-2,4,6-tri": 3129,
      "sodium;": 3130,
      "butanoyl)": 3131,
      "+3]": 3132,
      "-N-[[1-": 3133,
      "[3-(methylamino)piperidin-1-yl]": 3134,
      "13.": 3135,
      "-4-(methylamino)": 3136,
      "3,4-tri": 3137,
      "-5-methylthiophen-2-yl)": 3138,
      "adamantyl)": 3139,
      "4-[[2-": 3140,
      "2,3-di": 3141,
      "-2-sulfanylidene-1,3-thiazolidin": 3142,
      "-5-oxopyrrolidin-3-yl]": 3143,
      "14-di": 3144,
      "thiolo": 3145,
      "-2-phenylacetamide": 3146,
      "carbohydrazide": 3147,
      "C51": 3148,
      "-1,4-diazepan-1-yl]": 3149,
      "chloro-2-(": 3150,
      "-5-ethyl": 3151,
      "-N-[[4-": 3152,
      "prop-2-enoxy": 3153,
      "2-bromo-N-": 3154,
      "2-chloro-4-": 3155,
      "(4-tert-butylphenyl)": 3156,
      "heptanamide": 3157,
      "pyridine-2-sulfonamide": 3158,
      "N-(4-aminocyclohexyl)": 3159,
      "imidazol-1-yl)": 3160,
      "methyl]acetamide": 3161,
      "(5-bromo": 3162,
      "[(2-phenyl": 3163,
      "prop-1-yn": 3164,
      "hydro-1H-cyclopenta[a]phenanthren": 3165,
      "(6": 3166,
      "t27": 3167,
      "2,3,": 3168,
      "O15": 3169,
      "-3-[2-(": 3170,
      "2-[[3-": 3171,
      "pyrazin-2-yl)": 3172,
      "-(2-": 3173,
      "nitropyrazol": 3174,
      "hexyl)": 3175,
      "chromen-4-yl)": 3176,
      "sulfonylanilino)": 3177,
      "(2,4-dimethoxyphenyl)": 3178,
      "5,7,7a-": 3179,
      "-1,2,4-triazol-3-yl]sulfanyl]acetamide": 3180,
      "pentan-1-ol": 3181,
      "tert-butyl N-[5-": 3182,
      "chloro-2-methyl": 3183,
      "R,6S)": 3184,
      "[C-]": 3185,
      "(3-methoxypyrrolidin-1-yl)": 3186,
      "-(4-": 3187,
      "-N-[(3S)-piperidin-3-yl]": 3188,
      "H60": 3189,
      "[[(2S,3": 3190,
      "N-(2-amino-1-cyclopropylethyl)": 3191,
      "pyrrolidin-3-amine": 3192,
      "hexanamide": 3193,
      "[CH": 3194,
      "1,4-di": 3195,
      "[Na]": 3196,
      "ethyl 5-": 3197,
      "-(3-": 3198,
      "5-chloro-N-": 3199,
      "(2-phenylethoxy)": 3200,
      "-4-(trifluoromethyl)phenyl]": 3201,
      "ethylbutyl)": 3202,
      "-3-ethoxy": 3203,
      "-5,7-di": 3204,
      "imidazol-4-yl]": 3205,
      "(2,2,6,6-tetramethyl": 3206,
      "methyl-2-propan-2-yl": 3207,
      "ethyl]-4-": 3208,
      "carbonyl)phenyl]": 3209,
      "bicyclo[3.3.1]nonan": 3210,
      "[N-1]": 3211,
      "-N-cyclopropyl": 3212,
      "2-(cyclopropylmethylamino)": 3213,
      "-1,3-benzothiazole": 3214,
      "cyclohexyl)amino]": 3215,
      "-3,4-dihydropyr": 3216,
      "dimethyl ": 3217,
      "R,11": 3218,
      "pentan-3-yl]": 3219,
      "[4-[": 3220,
      "tert-butyl N-": 3221,
      "(2Z)": 3222,
      "hydro-2H-1,5-benzodioxepin": 3223,
      "O16": 3224,
      "tetraene": 3225,
      "(2E,": 3226,
      "3-trimethyl": 3227,
      "bor": 3228,
      "-4-methylphenyl)": 3229,
      "2-cyclopropyl": 3230,
      "benzaldehyde": 3231,
      "imidazole": 3232,
      "pyrrolo[3,4-": 3233,
      "9-diazabicyclo[4.2.1]": 3234,
      "-4": 3235,
      "),3": 3236,
      "triazol-4-yl]": 3237,
      "-5,7-dihydro-4H-": 3238,
      "ron": 3239,
      "N-(2-amino-2-methylpropyl)": 3240,
      "chloro-2-methoxyphenyl)": 3241,
      "[(2R)-2-methylpiperazin-1-yl]": 3242,
      "thiophene-2-carbonyl)": 3243,
      "ethanamine;hydrochloride": 3244,
      "[(2S)-2-methylpiperazin-1-yl]": 3245,
      "-3,4-dihydro-2H-quinolin-1-yl)": 3246,
      "(1,3-benzothiazol-2-yl)": 3247,
      "-N-methylpropanamide": 3248,
      "-2,4,6,": 3249,
      "phenoxyphenyl)": 3250,
      "quinoline-4-carboxamide": 3251,
      "phosphanyl": 3252,
      "(2H-": 3253,
      "N-(3-aminopropyl)": 3254,
      "anilino)-2-oxoethyl]-": 3255,
      "2-[[1-": 3256,
      "b,": 3257,
      "naphthyridin": 3258,
      "-1-(4-methylphenyl)": 3259,
      "5,6,7,8-tetrahydro": 3260,
      "thiolan": 3261,
      "-1-(3-methyl": 3262,
      "imidazolidine-2,4-dione": 3263,
      "ethylamino]methyl]": 3264,
      "(1,3-dimethylpyrazol-4-yl)": 3265,
      "[4-(dimethylamino)": 3266,
      "(E)-4-": 3267,
      "(3,4-difluorophenyl)": 3268,
      "-1,2-oxazole-3-carboxamide": 3269,
      "(1,3-thiazol-2-yl)": 3270,
      "N-butyl": 3271,
      "e-5-sulfonamide": 3272,
      "cyan": 3273,
      "azahexacyclo[": 3274,
      "[=P": 3275,
      "methyl-5-": 3276,
      "triazol-4-yl)": 3277,
      "methanesulfonate": 3278,
      "(2,6-dichlorophenyl)": 3279,
      "-3-methylsulfanyl": 3280,
      "N-(3-aminobutyl)": 3281,
      "methoxy)phenyl]": 3282,
      "-7H-": 3283,
      "cyclohexylethyl)": 3284,
      "(1-aminoethyl)piperidin-1-yl]": 3285,
      "[1,2-b]": 3286,
      "morpholine-3-carboxamide": 3287,
      "9,11,12,14,15,16,17-": 3288,
      "-1,1-dioxo-1,4-thiazin": 3289,
      "-N-(pyrrolidin-2-ylmethyl)": 3290,
      "N-[2-(aminomethyl)cyclopentyl]": 3291,
      "-3-(1-": 3292,
      "is": 3293,
      "-3-carbonyl)amino]": 3294,
      "(2,4-dioxo": 3295,
      "quinazolin-4-one": 3296,
      "(2R)-1-": 3297,
      "I2": 3298,
      "4-ethyl": 3299,
      "pyrimidin-2-amine": 3300,
      "-1,3-thiazol-5-yl]": 3301,
      "(2,3,": 3302,
      "[4-(4-": 3303,
      "kis": 3304,
      "thieno[2,3-c]": 3305,
      "[(1R)": 3306,
      "-methyl": 3307,
      "-N,2-dimethyl": 3308,
      "(2-hydroxyethyl)amino]": 3309,
      "(3-nitrophenyl)": 3310,
      "-3,4,5-trihydroxy": 3311,
      "5,6-di": 3312,
      "piperidine-3-carboxylic acid": 3313,
      "diamide": 3314,
      "-1,2-oxazol-5-yl)": 3315,
      "(4-aminopiperidin-1-yl)": 3316,
      "2,2-difluoro": 3317,
      "-2,3-dimethylbutan-2-yl)": 3318,
      "-2-yloxy)": 3319,
      "pyridin-4-ylmethyl)": 3320,
      "naphthalen-2-ylamino)": 3321,
      "-1,3-thiazol-2-yl)methyl]": 3322,
      "heptyl": 3323,
      "sulfonylbenzamide": 3324,
      "1-1]": 3325,
      "fluoroanilino)": 3326,
      "-6-amine": 3327,
      "3-[1-": 3328,
      "hept-5-": 3329,
      "]hepta": 3330,
      "piperazine-1-carboxamide": 3331,
      "quinoxaline": 3332,
      "acetyl]amino]propanoate": 3333,
      "methoxypyrrolidin-1-yl)": 3334,
      "azetidine": 3335,
      "-1-benzofuran-2-yl)": 3336,
      "benzhydr": 3337,
      "cyclohexen-1-yl)": 3338,
      "F8": 3339,
      "[4,3-": 3340,
      "N-(3-amino-2,2-dimethylpropyl)": 3341,
      "2-hydroxy": 3342,
      "pyrazolo[3,4-b]pyridine": 3343,
      "ethoxy)ethyl]": 3344,
      "thieno[3,2-d]pyrimidin": 3345,
      "piperidin-1-yl)methyl]": 3346,
      "[3-(trifluoromethyl)": 3347,
      "nitrophenyl)methyl]": 3348,
      "-9-bicyclo[3.3.1]nonan": 3349,
      "pyrrolidine-3-carboxamide;hydrochloride": 3350,
      "prop-2-en-1-amine": 3351,
      "3-[(3-": 3352,
      "26,": 3353,
      "-3-carbonitrile": 3354,
      "ethyl]propan-1-amine": 3355,
      "cyclopentan-1-ol": 3356,
      "-N-methylethanamine": 3357,
      "propan-2-yl]amino]": 3358,
      "cyclopropane-1-carboxylic acid": 3359,
      "oxan-3-yl]": 3360,
      "1H-benzimidazol-2-yl)": 3361,
      "[1,3]thiazolo[3,2-a]": 3362,
      "3-fluoro": 3363,
      "(2-methylbutan-2-yl)": 3364,
      "benzene-1,3-di": 3365,
      "cyclopenta[c]pyrrole": 3366,
      "(2-chloro-6-methyl": 3367,
      "R,8aR)": 3368,
      "-1-benzofuran-3-yl)": 3369,
      "benzo[b][1,4]": 3370,
      "4-(aminomethyl)": 3371,
      "-1-(1-": 3372,
      "amino-2-[[2-[(2-amino": 3373,
      "-4-oxoquinazolin": 3374,
      "3,4,5,6-": 3375,
      "-1,3-oxazole": 3376,
      "2-(4-chloro": 3377,
      "acetyl]amino]acetate": 3378,
      "indole-3,": 3379,
      "hydrazinylidene]": 3380,
      "[2-(3-": 3381,
      "-2-ylamino)": 3382,
      "-N-(piperidin-3-ylmethyl)": 3383,
      "octahydropyrrolo[3,4-": 3384,
      "oxalic acid": 3385,
      "phenylphenyl)": 3386,
      "),3,5,7,": 3387,
      "),2(7": 3388,
      "pyridin-4-amine": 3389,
      "3,3,3-trifluoro": 3390,
      "N-[(E)-": 3391,
      "-5,6,7,8-tetrahydro": 3392,
      "hex-5-": 3393,
      "propyl ": 3394,
      "-4-propyl": 3395,
      "cyclohexyl]methyl]": 3396,
      "[2,1-b][1,3]": 3397,
      "3-[(2-": 3398,
      "-5-hydroxy": 3399,
      "piperidin-3-yl]methyl]": 3400,
      "[[2-(2,6-diaminohexanoylamino)": 3401,
      "[1]benzothiolo": 3402,
      "-1,3-benzodioxol": 3403,
      "hydro-1H-isoquinolin": 3404,
      "-1-methoxy": 3405,
      "H62": 3406,
      "chloro-4-methylphenyl)": 3407,
      "b26": 3408,
      "-3-(5-": 3409,
      "-1-phenylpyrazol-4-yl]": 3410,
      "[methyl(": 3411,
      "pentamethyl": 3412,
      "[2-(methylamino)ethyl]piperidin-1-yl]": 3413,
      "thieno[2,3-d]pyrimidine-2,4-diamine": 3414,
      "3,4,4a,5,7,7a-": 3415,
      "sulfonic acid": 3416,
      "pyrrolidine-2,3-dione": 3417,
      "[L": 3418,
      "3,4,4a,5,7,7a-octahydropyrrolo[3,4-": 3419,
      "[Sn": 3420,
      "-6-azaspiro[2.5]octane-2-carboxamide": 3421,
      "-1,3,5-triazine": 3422,
      "pyrazole-3-": 3423,
      "H57": 3424,
      "N-propyl": 3425,
      "N-(3-methyl": 3426,
      "ethoxy]ethoxy]ethoxy]ethoxy]": 3427,
      "-1-enyl]": 3428,
      "acetylphenyl)": 3429,
      "-N-piperidin-3-yl": 3430,
      "furo[2,3-": 3431,
      "amino-2-cyclopropyl": 3432,
      "-N-[(E)-": 3433,
      "4.4]nonan": 3434,
      "2-(4-bromo": 3435,
      "cyclohex-3-en": 3436,
      "c6": 3437,
      "-N-(2-pyrrolidin-3-ylethyl)": 3438,
      "-2-methylphenyl]": 3439,
      "-9-bicyclo[3.3.1]nonanyl)": 3440,
      "1-cyclopropyl": 3441,
      "hexanoate": 3442,
      "ethoxy)phenyl]": 3443,
      "-7-amine": 3444,
      "4,4-trifluoro": 3445,
      "[=P]": 3446,
      "-5-carboxamide": 3447,
      "(2-methoxypropyl)": 3448,
      "c32": 3449,
      "hexoxy": 3450,
      "-2,7-di": 3451,
      "prop-2-enoyl]": 3452,
      "[Zr": 3453,
      "-N-methyl-N-": 3454,
      "N11": 3455,
      "propan-2-yl ": 3456,
      "-3-methyl-1-oxobutan-2-yl]carbamate": 3457,
      "triazin": 3458,
      "-1,2,4-thiadiazol": 3459,
      "N12": 3460,
      "-5-(hydroxymethyl)": 3461,
      "phenoxy)acetyl]": 3462,
      "3-[5-": 3463,
      "H-]": 3464,
      "2-amino-2-methyl": 3465,
      "pyrrolidin-2-yl)": 3466,
      "methylcarbamoyl)": 3467,
      "tert-butyl N-[3-": 3468,
      "r3": 3469,
      "-4-oxo-2-sulfanylidene-1,3-thiazolidin": 3470,
      "-1,2,4-triazol-3-yl)methyl]": 3471,
      "-1-(5-": 3472,
      "-N-methyl-2-": 3473,
      "(3-methoxypiperidin-1-yl)": 3474,
      "hexane": 3475,
      "R,9S,10": 3476,
      "(3-aminopropoxy)": 3477,
      "-3,4,4a,5,6,7,8,8a-octa": 3478,
      "-3-[1-": 3479,
      "oxan-2-yl)": 3480,
      "[Li": 3481,
      "[T": 3482,
      "acetyl]amino]-3-phenylpropanoate": 3483,
      "triphenyl": 3484,
      "6,6a-": 3485,
      "[(2,3-di": 3486,
      "pyrrolidine-1-carboxylate": 3487,
      "6-ethyl": 3488,
      "(1,3-benzodioxol-5-ylmethyl)": 3489,
      "-1-oxo-3-phenylpropan-2-yl]carbamate": 3490,
      "-3(7": 3491,
      "oxolane-2-carboxylic acid": 3492,
      "ium;": 3493,
      "(2,5-dioxo": 3494,
      "[tert-butyl(dimethyl)silyl]oxy": 3495,
      "azepane": 3496,
      "pyrazol-4-yl)ethyl]": 3497,
      "oxoisoindol-2-yl)": 3498,
      "[[(2S)-2-amino": 3499,
      "-4-methoxybenzamide": 3500,
      "sulfanylethyl)": 3501,
      "ethyl(methyl)amino]": 3502,
      "[(2,4-dichlorophenyl)": 3503,
      "thiophene-2-sulfonamide": 3504,
      "N-(3-amino-9-bicyclo[3.3.1]nonanyl)": 3505,
      "diethylsulfamoyl)": 3506,
      "methylidene)": 3507,
      "(4-methoxyphenyl)sulfonyl": 3508,
      "(3,4,5-trimethoxyphenyl)": 3509,
      "27,": 3510,
      "-(3-methyl": 3511,
      "-8-oxa": 3512,
      "hydro-1H-indole": 3513,
      "oxazin": 3514,
      "-3-yl]amino]": 3515,
      "piperidine-1-carboxamide": 3516,
      "-3a-": 3517,
      "bo": 3518,
      "4-hydroxy": 3519,
      "piperazin-1-ylpropyl)": 3520,
      "3.1.": 3521,
      "-5-oxopyrrolidine": 3522,
      ";oxalic acid": 3523,
      "-3-(trifluoromethyl)phenyl]": 3524,
      "perox": 3525,
      "acetamidophenyl)": 3526,
      "2-(4-chlorophenyl)": 3527,
      "16-di": 3528,
      "1-[(3-": 3529,
      "pyridin-3-amine": 3530,
      "4-bromo-N-": 3531,
      "-3-methylpyrrolidin-1-yl]": 3532,
      "1-(4-bromo": 3533,
      "[(2-methylphenyl)methyl]": 3534,
      "phosphane": 3535,
      "-1H-indol": 3536,
      "oxo-1-": 3537,
      "[(5-ethyl": 3538,
      "[(3a": 3539,
      "[4-(aminomethyl)-2-methyl": 3540,
      "pyrrolo[3,2-": 3541,
      "3-(2-": 3542,
      "[(2-hydroxy": 3543,
      "-5-chloro": 3544,
      "methyl]phenoxy]": 3545,
      "oxaspiro[4.5]decan": 3546,
      "h21": 3547,
      "6]do": 3548,
      "spiro[1,": 3549,
      "-2-oxoethoxy]": 3550,
      "-3-[5-": 3551,
      "4,7-": 3552,
      "pyrrol-2-yl]": 3553,
      "hydrop": 3554,
      "benzimidazol-2-yl]methyl]": 3555,
      "-4-methylpentan-2-yl)": 3556,
      "(2,5-dichlorophenyl)": 3557,
      "benzoyl)piperazin-1-yl]": 3558,
      "[1,2,4]triazol": 3559,
      "carbonimido": 3560,
      "(3,5-dichlorophenyl)": 3561,
      "pyridin-3-yl]methyl]": 3562,
      "-1,2,4-triazole": 3563,
      "1,3-benzodioxol-5-yl)": 3564,
      "-1,2-oxazol-3-yl]": 3565,
      "-1,2-dihydro": 3566,
      "(3-aminopiperidin-1-yl)": 3567,
      "-2-[[4-": 3568,
      "nonan-3-yl)": 3569,
      "N-(2-amino-2-ethylbutyl)": 3570,
      "bromide": 3571,
      "2-oxazol": 3572,
      "7-methoxy": 3573,
      "3,4,5-trimethoxyphenyl)": 3574,
      "-4,5-dimethyl": 3575,
      "1-[3-(": 3576,
      "[(2-oxo": 3577,
      "azaheptacyclo[": 3578,
      "chloropyridin-3-yl)": 3579,
      "-1,4-diamine": 3580,
      "-4-methylsulfanyl-1-oxobutan-2-yl]carbamate": 3581,
      "-4-methyl-1-oxopentan-2-yl]carbamate": 3582,
      "4-[5-": 3583,
      "-2-oxo-1-phenylethyl]": 3584,
      "-1,5-dioxopentan-2-yl]carbamate": 3585,
      "4,6-dimethylpyrimidin-2-yl)": 3586,
      "-1,4-dioxobutan-2-yl]carbamate": 3587,
      "2-(4-aminophenyl)": 3588,
      "N-[(": 3589,
      "-5-iodo": 3590,
      "-1-oxo-3-sulfanylpropan-2-yl]carbamate": 3591,
      "cyclobutyl)methyl]": 3592,
      "tert-butyl N-[5-amino-1-": 3593,
      "3-(3-": 3594,
      "tert-butyl N-[4-amino-1-": 3595,
      "-1,3,4-oxadiazol-2-yl)": 3596,
      "(4-ethoxy": 3597,
      "[2-(hydroxymethyl)": 3598,
      "2-[6-": 3599,
      "N-(1-aminopropan-2-yl)": 3600,
      "5-ethyl": 3601,
      "(2S)-2-amino-N-[2-": 3602,
      "N-[[2-(": 3603,
      "12.": 3604,
      "(propan-2-yl)amino]": 3605,
      "2-[[6-": 3606,
      "methylsulfonyl": 3607,
      "-7-methoxy": 3608,
      "-2,6-dione": 3609,
      "purine": 3610,
      "thian-2-yl)": 3611,
      "trifluoroprop": 3612,
      "methylsulfonyl)": 3613,
      "-1,2,4-oxadiazol-3-yl]": 3614,
      "(5E)-5-": 3615,
      "pyridine-3-carboxylic acid": 3616,
      "1H-1,2,4-triazol": 3617,
      "-14-": 3618,
      "7-amino-N-": 3619,
      "cyclopropanecarboxamide": 3620,
      "furan-3-carboxylic acid": 3621,
      "1H-pyrazol": 3622,
      "thieno[2,3-d]pyrimidin-4-amine": 3623,
      "[(3S)": 3624,
      "-N-(oxolan-2-ylmethyl)": 3625,
      "2-benzyl": 3626,
      "[(3R,4": 3627,
      "oxazolo[5,4-": 3628,
      "azatricyclo[7.3.0.03,7]": 3629,
      "[(dimethylamino)": 3630,
      "(3-methoxy-3-methyl": 3631,
      "),2,4,6,": 3632,
      "propan-2-yloxyphenyl)": 3633,
      "icosa-1(": 3634,
      "(3a": 3635,
      "pyridine-2-carboxylic acid": 3636,
      "2-[3-(": 3637,
      "4(": 3638,
      "indeno": 3639,
      "piperazin-1-yl]methyl]": 3640,
      "-3-chloro": 3641,
      "pyrazin-2-yl": 3642,
      "azetidin-3-yl)": 3643,
      "phenyl]methanone": 3644,
      "-4-methylbenzamide": 3645,
      "-N-(2-hydroxyethyl)": 3646,
      "-4-oxobutyl]": 3647,
      "-1-benzofuran-2-carboxamide": 3648,
      "aminomethyl)cyclohexyl]": 3649,
      "-N-(2-piperazin-1-ylethyl)": 3650,
      "pyridine-2,6-diamine": 3651,
      "N-(4-bromo": 3652,
      "octadec": 3653,
      "carbamimidoyl]": 3654,
      "ethyl 3-[[2-": 3655,
      "e-1-carboxylic acid": 3656,
      "-3-methyl-1-oxopentan-2-yl]carbamate": 3657,
      "-N,3-dimethyl": 3658,
      "oxatricyclo[": 3659,
      "-3-piperidin-3-yl": 3660,
      "-15-": 3661,
      "propan-2-yloxy)": 3662,
      "ethoxyphenyl)methyl]": 3663,
      "5,6,8,": 3664,
      "6,7-di": 3665,
      "-6-nitro": 3666,
      "benzhydryl": 3667,
      "3-chloro": 3668,
      "oxo-3-": 3669,
      "[(2R)-1-": 3670,
      "N-[6-": 3671,
      "thieno[3,2-c]pyridin": 3672,
      "N-methyl-1-": 3673,
      "-N-(2-piperidin-3-ylethyl)": 3674,
      "4-[1-": 3675,
      "piperazin-1-yl]ethanone": 3676,
      "8.0.02,": 3677,
      "pyrazolo[1,5-a]pyrazin": 3678,
      "3,3,3-hexa": 3679,
      "[4-[2-": 3680,
      "t28": 3681,
      "b27": 3682,
      "bicyclo[2.2.1]heptanyl)": 3683,
      "S,13R,": 3684,
      "N-(3-amino-4-methylpentyl)": 3685,
      "azanium;": 3686,
      "-1,3-oxazol-2-yl]": 3687,
      "-8-azabicyclo[3.2.1]oct": 3688,
      "N-(2-hydroxy": 3689,
      "methylcarbamoyl]": 3690,
      "pyrrolidine-1-carbonyl)": 3691,
      "-2-(naphthalen-2-ylamino)": 3692,
      "[K": 3693,
      "azabicyclo[2.2.1]": 3694,
      "(2-hydroxyethoxy)": 3695,
      "-2-pyrrolidin-2-yl": 3696,
      "cyclohepta": 3697,
      "N-cyclohexyl": 3698,
      "4-(2-": 3699,
      "(2-methyl-1,3-thiazol-4-yl)": 3700,
      "[(2,2-dimethyl": 3701,
      "cycloheptyl": 3702,
      "]-1'-": 3703,
      "-2-oxo-2-(propan-2-ylamino)": 3704,
      "-2-oxo-2-(pentylamino)": 3705,
      "azolo[3,4-b]": 3706,
      "-2-oxo-2-(pentan-2-ylamino)": 3707,
      "(2-methoxy-5-methylphenyl)": 3708,
      "en-2-yl]": 3709,
      "oxo-4-": 3710,
      "c33": 3711,
      "-2-(4-methoxyphenyl)": 3712,
      "5-amino-2-": 3713,
      "phenyl]propanamide": 3714,
      "-5-propyl": 3715,
      "thiophen-2-yl)methyl]": 3716,
      "-N,N-diethyl": 3717,
      "ethanesulfonamide": 3718,
      "-2-methyl-3-": 3719,
      "-N-[(5-methyl": 3720,
      "-4-yl)amino]": 3721,
      "oxetan-3-yl": 3722,
      "(2,3-dichlorophenyl)": 3723,
      "6.0": 3724,
      "(1-methoxycyclobutyl)": 3725,
      "piperazine-1-carboxylate": 3726,
      "C60": 3727,
      "chloro-2-fluorophenyl)methyl]": 3728,
      "C56": 3729,
      "-2-methylbenzamide": 3730,
      "3,5,6-tetra": 3731,
      "2-ethoxy": 3732,
      "-2-thiomorpholin-3-yl": 3733,
      "-N-(5-methyl": 3734,
      "piperidin-4-yl)methyl]": 3735,
      "3'-indole": 3736,
      "(1-benzo": 3737,
      "(3,4-dihydro-2H-pyran": 3738,
      "[[(2R)-2-": 3739,
      "-4-methylsulfanylbutanoic acid": 3740,
      "4-(3-": 3741,
      "(2S)-2-amino-3-methyl": 3742,
      "H64": 3743,
      "-3-carboxypropanoyl]amino]": 3744,
      "1,3-thiazol-2-yl)": 3745,
      "2-N-": 3746,
      "N-(2-bromo": 3747,
      "hexyl]": 3748,
      "aphthal": 3749,
      "cyclohexylmethyl)": 3750,
      "13-di": 3751,
      "N-(1-amino-2-methylpropan-2-yl)": 3752,
      "3-dihydro-1,4-benzodioxin": 3753,
      "furan-2-carbonyl)": 3754,
      "-3-methyl-2-": 3755,
      "-2-thiophen-3-yl": 3756,
      "[NH1+1]": 3757,
      "cyclopropyl)amino]": 3758,
      "-3-phenylpropanamide;hydrochloride": 3759,
      "N-(1-aminohexan-2-yl)": 3760,
      "-[1,2]": 3761,
      "),3,": 3762,
      "oxyphenyl]": 3763,
      "ethyl]propanamide": 3764,
      "1,3-benzothiazol-2-yl)": 3765,
      "amino-3-": 3766,
      "-N-[2-(propylamino)ethyl]": 3767,
      "pyridine-2-carbonitrile": 3768,
      "S,7aS)": 3769,
      "phenyl]carbamothioyl]benzamide": 3770,
      "pyrido[1,2-a]pyrimidin": 3771,
      "amino-2-cyclopropylpropan-2-yl)": 3772,
      "dodecyl": 3773,
      "1-[(2-": 3774,
      "-1,3-dioxolan": 3775,
      "-1,3-benzodioxol-5-yl)": 3776,
      "-4-propan-2-yloxy": 3777,
      "-N-(4-methylphenyl)": 3778,
      "20]": 3779,
      "methyl]benzoic acid": 3780,
      "9H-fluoren-9-yl": 3781,
      "6H-": 3782,
      "(3-methoxy-4-methylpiperidin-1-yl)": 3783,
      "-4,6-dimethyl": 3784,
      "-5-thiophen-2-yl": 3785,
      "-3-(4-hydroxyphenyl)-1-oxopropan-2-yl]carbamate": 3786,
      "(4-tert-butyl": 3787,
      "-5-(diaminomethylideneamino)pentanoic acid": 3788,
      "-3'-": 3789,
      "-2-ethoxy": 3790,
      "fluoropyridin-3-yl)": 3791,
      "benzenesulfonate": 3792,
      "trideca-": 3793,
      "3,5-trimethylpyrazol-4-yl)": 3794,
      "prop-2-enoxyphenyl)": 3795,
      "9,9-dimethyl": 3796,
      "-3-propyl": 3797,
      "cyclopentyloxy": 3798,
      "methylsulfanyl]-1,3,4-thiadiazol-2-yl]": 3799,
      "[(4-methoxy": 3800,
      "-[1,2,4]triazolo[1,5-a]pyrimidin": 3801,
      "S,14": 3802,
      "-1-N,": 3803,
      "-N-[[3-": 3804,
      "-6-methylmorpholin-4-yl]": 3805,
      "piperazine-1-carbonyl)": 3806,
      "-3-hydroxybutanoic acid": 3807,
      "chloro-6-fluorophenyl)": 3808,
      "-2,3-dihydro-1,4-benzodioxin": 3809,
      "R,13R,": 3810,
      "[2,1-c]": 3811,
      "-1,3-thiazolidine-4-carboxamide": 3812,
      "3,4-dichlorophenyl)": 3813,
      "en-12-": 3814,
      "(2,4,5-tri": 3815,
      "-2-[[5-": 3816,
      "(4-benzyl": 3817,
      "-2,3,3a,4,5,6,7,7a-octahydro-1H-indole": 3818,
      "el": 3819,
      "2-phenyl": 3820,
      "dihydro": 3821,
      "2-[[2-(": 3822,
      "chloroethyl)": 3823,
      "N'-methyl": 3824,
      "(3-methoxypropyl)": 3825,
      "aH-": 3826,
      "(2,5-difluorophenyl)": 3827,
      "-3,4-dihydro-1H-isoquinoline": 3828,
      "pyrrolidin-3-ol": 3829,
      "(3S)-3-": 3830,
      "azolo[3,4-b][1,3,4]": 3831,
      "N-[3-(aminomethyl)": 3832,
      "sulfamoylphenyl)": 3833,
      "-1-(4-methyl": 3834,
      "ynyl": 3835,
      "-2-(4-methyl": 3836,
      "azon": 3837,
      "-1,2,3-": 3838,
      "(5E)": 3839,
      "(2-ethoxyethoxy)": 3840,
      "pentaene": 3841,
      "[cyclopropyl": 3842,
      "piperidin-3-amine": 3843,
      "-2-oxa": 3844,
      "26-": 3845,
      "6a,": 3846,
      "[(2E)-2-": 3847,
      "pyrazolo[3,4-b]pyridin": 3848,
      "-11,": 3849,
      "methyl acetate": 3850,
      "propan-2-one": 3851,
      "-6-propan-2-yl": 3852,
      "itro": 3853,
      "trioxo": 3854,
      "-4,5,6,7-tetrahydro-1-benzothiophene-3-carboxylate": 3855,
      "oxan-3-yl]oxy": 3856,
      "ethylsulfamoyl)": 3857,
      "dibenzo": 3858,
      "-3,6-dimethyl": 3859,
      "-1-benzothiophene-2-carboxamide": 3860,
      "butan-2-ylamino)": 3861,
      "5-fluoro": 3862,
      "cyanomethyl)": 3863,
      "(5-chloro": 3864,
      "[2-(2,4-di": 3865,
      "[Sn]": 3866,
      "-2-propan-2-ylbutyl)": 3867,
      "N-[1-(aminomethyl)cyclopentyl]": 3868,
      "fluoromethyl)": 3869,
      "-3,4,4a,5,6,7,8,8a-octahydro-2H-quinolin": 3870,
      "12,15,": 3871,
      "tetrahydro-5H-": 3872,
      "-1,4-benzodioxine": 3873,
      "9a-": 3874,
      "[1]benzothiolo[2,3-": 3875,
      "-8-methyl": 3876,
      "pentaen": 3877,
      "-3-carboxypropanoyl)amino]": 3878,
      "-4-[2-": 3879,
      "-1H-benzimidazol": 3880,
      "3,3-tetrafluoroprop": 3881,
      "4-amino-2-": 3882,
      "fluoropyridin-2-yl)": 3883,
      "[bis": 3884,
      "-N-(thiophen-2-ylmethyl)": 3885,
      "ethyl 2-[2-": 3886,
      "oxolan-3-yl]": 3887,
      "azatricyclo[7.4.0.02,": 3888,
      "-3-hydroxy-1-oxopropan-2-yl]carbamate": 3889,
      "phenoxy]methyl]": 3890,
      "N-[[1-(": 3891,
      "benzo[b][1,4]benzodiazepin": 3892,
      "[5-(trifluoromethyl)": 3893,
      "-N-(furan-2-ylmethyl)": 3894,
      "-2-[1-": 3895,
      "(3,3-di": 3896,
      "3-[2-(": 3897,
      "3-amino-1-": 3898,
      "[(3-methylphenyl)": 3899,
      "fluoropyridine": 3900,
      "-4-methoxyphenyl)": 3901,
      "-1,2,4-oxadiazol-3-yl)": 3902,
      "(2+)": 3903,
      "propanedioate": 3904,
      "(2,6-difluorophenyl)": 3905,
      "benzoxazepin": 3906,
      "-6-chloro": 3907,
      "-2,4,": 3908,
      "',N'-": 3909,
      "(1,2,3,4-tetrahydro": 3910,
      "-1-ylmethyl)": 3911,
      "-5-nitrophenyl)": 3912,
      "-N-cyclobutyl": 3913,
      "thiophene-2-carboxamide;hydrochloride": 3914,
      "b3": 3915,
      "-3-(difluoromethyl)": 3916,
      "-[1,2,4]triazolo[4,3-a]": 3917,
      "-7-fluoro": 3918,
      "H66": 3919,
      "pyrazin-2-amine": 3920,
      "[(E)-3-phenyl": 3921,
      "benzo[c]": 3922,
      "-3-hydroxypropanoic acid": 3923,
      "(4Z)": 3924,
      "oxaspiro[4.4]nonan": 3925,
      "[C-1]": 3926,
      "phenylmethoxycarbonylamino)": 3927,
      "-2-carbaldehyde": 3928,
      "imidazo[2,1-b][1,3]": 3929,
      "(5Z)-5-": 3930,
      "F9": 3931,
      "-5H-": 3932,
      "pyridin-1-yl]": 3933,
      "d][1,3]thiazol": 3934,
      "-4-methylpentanoyl)amino]": 3935,
      "-1,3-thiazol-4-yl)methyl]": 3936,
      "-2-piperidin-1-yl": 3937,
      "-2-hydroxypropyl)": 3938,
      "-1-en": 3939,
      "but-2-enoate": 3940,
      "]-2',": 3941,
      "pentylamino]": 3942,
      "fluoro-2-methylphenyl)": 3943,
      "oxan-4-yl": 3944,
      "prop-2-enylamino]": 3945,
      ",23-": 3946,
      "pyrano": 3947,
      "benzenecarbothioamide": 3948,
      "S,6R)-3,4,5-tri": 3949,
      "-3-(4-methylphenyl)": 3950,
      "-N'-hydroxy": 3951,
      "-2,5,": 3952,
      "-3-yl)acetamide": 3953,
      "(2-methylpyrazol-3-yl)ethyl]": 3954,
      "1-cyclopentyl": 3955,
      "[(4aR,8aR)": 3956,
      "2,2,": 3957,
      "N,N-diethyl": 3958,
      "-1-thiophen-2-yl": 3959,
      "ideneamino]": 3960,
      "2-chloro-5-": 3961,
      "tetraen": 3962,
      "[8-": 3963,
      "-4-carboxylic acid": 3964,
      "propyl]carbamate": 3965,
      "[3,5-bis(": 3966,
      "N-(1-amino-2-cyclopropylpropan-2-yl)": 3967,
      "anthracen": 3968,
      "ethenylphenyl)": 3969,
      "10,12-": 3970,
      "-N-(3-hydroxy": 3971,
      "-7-yl": 3972,
      "trifluoromethyl)pyridin-3-yl]": 3973,
      "[(4aR,8aR)-3,4,4a,5,6,7,8,8a-octahydro-2H-quinolin": 3974,
      "-3a,": 3975,
      "tridec": 3976,
      "thiolane": 3977,
      "2-methylprop-2-enoate": 3978,
      "[(6-methoxy": 3979,
      "pyrimidin-4-yl]amino]": 3980,
      "furan-2-yl]methyl]": 3981,
      "acetyl]amino]propanoic acid": 3982,
      "(3,3,3-": 3983,
      "carbamothioyl]benzamide": 3984,
      "4-[(4-": 3985,
      "[[2-(2-chloro-6-methyl": 3986,
      "C53": 3987,
      "e-1-sulfonamide": 3988,
      "-1,3-oxazol-2-yl)": 3989,
      "oxolan-3-ylmethyl)": 3990,
      "O18": 3991,
      "phenyl]-4-": 3992,
      "tert-butyl 2-[[2-": 3993,
      "cyclobutan-1-amine": 3994,
      "methoxycarbonylamino)": 3995,
      "3,4,5,6-penta": 3996,
      "t29": 3997,
      "6,7,7a-": 3998,
      "[NH2": 3999,
      "pyrazine-2-carboxamide": 4000,
      "piperidine-2-carboxamide;hydrochloride": 4001,
      "-3,4-dihydro-2H-chromen": 4002,
      "ethylidene]": 4003,
      "N-[2-(dimethylamino)": 4004,
      "3,3-trimethyl": 4005,
      "Z)-": 4006,
      "7-trimethyl": 4007,
      "-3-(1H-indol-3-yl)propanoic acid": 4008,
      "R,6S,7": 4009,
      "N-[2-(aminomethyl)cyclohexyl]": 4010,
      "12,14-": 4011,
      "-[1,2]oxazolo[5,4-": 4012,
      "3-(1-": 4013,
      "-6-ethyl": 4014,
      "pyrazin-2-yl]": 4015,
      "cyclopropyl-5-": 4016,
      "),5,7,": 4017,
      "[2-(2,6-dimethyl": 4018,
      "-N-methylsulfonylanilino)": 4019,
      "[(2R,3R,4R,5": 4020,
      "6-bis": 4021,
      "enoic acid": 4022,
      "[3-(methylamino)propyl]": 4023,
      "[CH1-1]": 4024,
      "-3,7-di": 4025,
      "dibenzofuran": 4026,
      "-5-carboxylate": 4027,
      "pentoxy)": 4028,
      "(2-methoxyethylamino)ethyl]": 4029,
      "N-phenyl": 4030,
      "13(": 4031,
      "-[2-[(2-methylpropan-2-yl)oxycarbonylamino]": 4032,
      "thian": 4033,
      "pyridine-3-sulfonamide": 4034,
      "[(1R,3": 4035,
      "-4-(4-": 4036,
      "[3-(2-methoxyethoxy)": 4037,
      "-10,": 4038,
      "-3-[4-(": 4039,
      "C58": 4040,
      "e-5-carboxylate": 4041,
      "-1,6-di": 4042,
      "N-[3-(aminomethyl)pentan-3-yl]": 4043,
      ";tri": 4044,
      "imidazol-2-yl]": 4045,
      "-N-(3-piperazin-1-ylpropyl)": 4046,
      "(2-fluoro": 4047,
      "[(3-methylphenyl)methyl]": 4048,
      "hydro-1H-isoquinolin-2-yl)": 4049,
      "(2,2-di": 4050,
      "oxiran": 4051,
      "benzothiazin": 4052,
      "azacyclo": 4053,
      "19]": 4054,
      "1-[(4-": 4055,
      "-1,2-dimethyl": 4056,
      "1,2,4-triazol-1-yl)": 4057,
      "(2,2,3,3-tetrafluoroprop": 4058,
      "piperazin-2-one": 4059,
      "-1-oxa": 4060,
      "4-[2-(": 4061,
      "-1-(4-fluorophenyl)": 4062,
      "amino-2-[[2-[[2-[(2-amino": 4063,
      "prop-1-ynyl)": 4064,
      "2-[methyl-": 4065,
      "-3-hydroxypropanoyl)amino]": 4066,
      "undec": 4067,
      "17,19-": 4068,
      "[[2-(2,6-dimethyl": 4069,
      "cyclopropanecarbonyl)": 4070,
      "-2,2-difluoro": 4071,
      "pent-4-en": 4072,
      "chloroanilino)": 4073,
      "-6-(difluoromethyl)": 4074,
      "fluoro-4-methoxyphenyl)methyl]": 4075,
      "N-(1-amino-4-methylpentan-2-yl)": 4076,
      "heptan-2-yl]": 4077,
      "25-": 4078,
      "3C": 4079,
      "-4-oxo-1H-": 4080,
      "4-tert-butyl": 4081,
      "cyclohepta[": 4082,
      "-3-(1H-imidazol-5-yl)propanoic acid": 4083,
      "imidazolidin-1-yl)": 4084,
      "6,7-dihydro-4H-": 4085,
      "phosphono": 4086,
      "3-[[4-": 4087,
      "methylidene]amino]": 4088,
      "8-methyl": 4089,
      "ethylsulfonyl": 4090,
      "-1-methylpyrazol-4-yl)": 4091,
      "-4-methylsulfanylbutanoyl)amino]": 4092,
      "[(4aR,8aR)-3,4,4a,5,6,7,8,8a-octahydro-2H-quinolin-1-yl]": 4093,
      "thieno[3,4-": 4094,
      "piperazin-1-yl]acetamide": 4095,
      "[2,6-di": 4096,
      "hexaene": 4097,
      "piperazin-1-yl)methyl]": 4098,
      "-3-sulfanylpropanoic acid": 4099,
      "morpholine-2-carboxamide": 4100,
      "-3-(4-methoxyphenyl)": 4101,
      "pyrrol-3-yl)": 4102,
      "-4-nitrophenyl)": 4103,
      "7-fluoro": 4104,
      "-6-[": 4105,
      "-3-prop-2-enyl": 4106,
      "bicyclo[4.2.0]": 4107,
      "-1,1-dioxo-1,4-thiazinan-4-yl)": 4108,
      "piperidin-4-yl]methyl]": 4109,
      "5-methoxy": 4110,
      "ethyl]carbamate": 4111,
      "(1-hydroxyethyl)": 4112,
      "[2-(2-methyl": 4113,
      "e-5-carboxylic acid": 4114,
      "xanth": 4115,
      "oate": 4116,
      "P3": 4117,
      "(1,1-dioxo": 4118,
      "-N-(2,2,2-trifluoroethyl)": 4119,
      "-3-(4-hydroxyphenyl)propanoic acid": 4120,
      "dinitro": 4121,
      "-1,3-benzothiazol-2-ylidene)": 4122,
      "12]": 4123,
      "trifluoropropan": 4124,
      "1-[2-(aminomethyl)": 4125,
      "10.03,8.0": 4126,
      "(2,2-dimethylbutyl)": 4127,
      "sel": 4128,
      "benzamide;dihydrochloride": 4129,
      "prop-2-enenitrile": 4130,
      "-1H-benzimidazol-2-yl)": 4131,
      "t4": 4132,
      "h20": 4133,
      "9-tetrahydro-5H-": 4134,
      "(4a": 4135,
      "cyclopentan-1-amine": 4136,
      "2-methyl-5-": 4137,
      "-2-methyl-3-(methylamino)": 4138,
      "-4-carboxybutanoyl]amino]": 4139,
      "phenyl]sulfonyl": 4140,
      "morpholin-4-ylsulfonyl": 4141,
      "oxo-1-phenyl": 4142,
      "(1,2-oxazol": 4143,
      "-3,5,": 4144,
      "azepane-1-": 4145,
      "dodecaene": 4146,
      "-2,4-dimethylpentan-2-yl)": 4147,
      "-1-phenylpyrazol-4-yl]methylidene]": 4148,
      "[(1S,3": 4149,
      "amino-4-": 4150,
      "),2,4,": 4151,
      "prop-2-enoyl]amino]phenyl]sulfanyl": 4152,
      "(2S,4": 4153,
      "9,10-": 4154,
      "-2-(1,": 4155,
      "1-phenyl": 4156,
      "morpholine-4-carbonyl)": 4157,
      "phosphoryl": 4158,
      "[(2,4-dimethyl": 4159,
      "naphthalene-2-carboxamide": 4160,
      "doc": 4161,
      "7-(": 4162,
      "e-4-carbonyl]amino]": 4163,
      "ethanone;dihydrochloride": 4164,
      "-1,2-oxazole": 4165,
      "-3-carbonyl]": 4166,
      "-2-(5-methyl": 4167,
      "piperidine-4-carboxylate": 4168,
      "C55": 4169,
      "-1,2,4-oxadiazol-5-yl]methyl]": 4170,
      "hydroxy-2,2-dimethyl": 4171,
      "-1,3,4-oxadiazole": 4172,
      "-1,3-thiazolidine-2,4-dione": 4173,
      "azatricyclo[5.": 4174,
      "(5Z)": 4175,
      "-2,5-dimethylpyrrol-3-yl]": 4176,
      "[(1S,4": 4177,
      "piperazine-1-carboximidamide": 4178,
      "-3-ium": 4179,
      "-1,2,3,4,4a,5,7,7a-octahydropyrrolo[3,4-": 4180,
      "-N-(6-": 4181,
      "(3-ethoxy": 4182,
      "hydroxyphenyl)-2-oxoethyl]-": 4183,
      "D2": 4184,
      "[(5-bromo": 4185,
      "deca-2(": 4186,
      "22,24,": 4187,
      "methoxy-5-": 4188,
      "[3-(methylaminomethyl)pyrrolidin-1-yl]": 4189,
      "4,5-dibromothiophen-2-yl)": 4190,
      "hydrogen phosphate": 4191,
      "cyclohex-2-en": 4192,
      "(2-morpholin-4-yl": 4193,
      "-1,4-dione": 4194,
      "(2-aminoethyl)": 4195,
      "oxolan-2-ylmethoxy)": 4196,
      "methoxy-": 4197,
      "1-(4-chlorophenyl)": 4198,
      "[di": 4199,
      "thia-1,": 4200,
      "propan-1-one;dihydrochloride": 4201,
      ",22-": 4202,
      "b28": 4203,
      "-N-[[2-": 4204,
      "ethyl]-N-methyl": 4205,
      "imidazol-2-yl)methyl]": 4206,
      "[(2-methylphenyl)": 4207,
      "(2-phenoxy": 4208,
      "-methylamino]propanoic acid": 4209,
      "pyridazine-3-carboxamide": 4210,
      "sulfanyl]acetamide": 4211,
      "-2-[(": 4212,
      "hydropyrano": 4213,
      "trifluoromethylsulfanyl)": 4214,
      "[[1-carboxy": 4215,
      "methyl-2-[(2-methylpropan-2-yl)oxycarbonylamino]": 4216,
      "anoate": 4217,
      "-2-oxoethyl]sulfanyl": 4218,
      "-(5-": 4219,
      "(1-benzyl": 4220,
      "-8-carboxamide": 4221,
      "[(3S,4": 4222,
      "-1,3-benzoxazol-2-yl)": 4223,
      "thieno[2,3-d]pyrimidin-2-amine": 4224,
      "sulfonyl)amino]": 4225,
      "[NH3": 4226,
      "-1-benzazepin": 4227,
      "[(2-fluorophenyl)methyl]": 4228,
      "-3-fluorophenyl)": 4229,
      "-3-sulfonamide": 4230,
      "indazol-3-yl)": 4231,
      "),2(7),3,5,": 4232,
      "N-(1-amino-2,3-dimethylbutan-2-yl)": 4233,
      "-N-[3-(methylamino)propyl]": 4234,
      "9-phenyl": 4235,
      "cyclopropane-1-carboxamide;hydrochloride": 4236,
      "-1,2,4-triazol-3-yl]sulfanyl]-N-": 4237,
      "e-1-carboxylate": 4238,
      "[(3R)": 4239,
      "oxapentacyclo[": 4240,
      "-8-(": 4241,
      "15.": 4242,
      "18-di": 4243,
      "methylamino)piperidin-1-yl]": 4244,
      "2-[[4-amino-5-": 4245,
      "chlorobenzoyl)amino]": 4246,
      "imidazo[2,1-b][1,3]thiazol": 4247,
      "piperazine-1-carboximidamide;hydroiodide": 4248,
      "5-chloro-2-": 4249,
      "phosphin": 4250,
      "-1,3,5-triazin-2-yl]": 4251,
      "-3-(4-methyl": 4252,
      "bicyclo[2.2.1]hept-5-": 4253,
      "en-14-": 4254,
      "4,5-trimethyl": 4255,
      "2-amino-1-": 4256,
      "-1-(4-methoxyphenyl)": 4257,
      "octylamino]": 4258,
      "-propan-2-ylamino]": 4259,
      "-5-bromo": 4260,
      "tetradec": 4261,
      "pyrimidin-5-yl": 4262,
      "N-cyclobutyl": 4263,
      "quinolin-6-yl)": 4264,
      "carbamoyl]amino]": 4265,
      "[c": 4266,
      "4-(5-": 4267,
      "sulfonylpiperazin-1-yl]": 4268,
      "fluorobenzoyl)amino]": 4269,
      "cyclopenta-1,3-di": 4270,
      "H59": 4271,
      "pyridine-3-carboxylate": 4272,
      "[1-[2-(": 4273,
      "pyrazol-3-yl)methyl]": 4274,
      "15,20]": 4275,
      "17,19,": 4276,
      "thieno[3,2-c]pyridin-5-yl)": 4277,
      "-5-yl)amino]": 4278,
      "triazol-1-yl]": 4279,
      "methoxyphenyl)methylamino]": 4280,
      "-1,2,5-": 4281,
      "-N-(pyridin-2-ylmethyl)": 4282,
      "acosa": 4283,
      "ethynyl)": 4284,
      "azolo[4,3-b]": 4285,
      "-4-pyrrolidin-1-yl": 4286,
      "1,3-benzodioxol": 4287,
      "[3,5-di": 4288,
      "3,4-dihydro-2H-": 4289,
      "phenyl]methylamino]": 4290,
      "pyrazolo[3,4-d]pyrimidin-1-yl]": 4291,
      "butanoyl": 4292,
      "azatetracyclo[8.": 4293,
      "phenyl]ethynyl]": 4294,
      "tert-butyl N-[1-[[2-(benzylamino)": 4295,
      "decahydro": 4296,
      "3-[[1-": 4297,
      "H68": 4298,
      "(3-oxo": 4299,
      "[[5-amino-2-": 4300,
      "[(1,3-dimethyl": 4301,
      "-N-(2-phenylethyl)": 4302,
      "[(dimethylamino)methyl]": 4303,
      "(2-methoxy-3,4-dimethyl": 4304,
      "-2-thione": 4305,
      "2.1": 4306,
      "cyclohexanecarboxamide": 4307,
      "hydroxy-4-methyl": 4308,
      "bromo-3-chlorophenyl)": 4309,
      "bromo-4-fluorophenyl)": 4310,
      "2-(aminomethyl)-2-ethyl": 4311,
      "-6-azaspiro[2.5]octane-2-carboxamide;hydrochloride": 4312,
      "ethylsulfanyl)": 4313,
      "naphthyridine": 4314,
      "acr": 4315,
      "5-[2-": 4316,
      "1-N-": 4317,
      "chlorophenoxy)methyl]": 4318,
      "isoquinolin-8-yl": 4319,
      "imidazo[1,2-a]pyridin": 4320,
      "phenyl]-5-": 4321,
      "(4-oxo": 4322,
      "propyl]benzamide": 4323,
      "5,7-dimethyl": 4324,
      "-6,7,8,": 4325,
      "chloro-2-methylphenyl)": 4326,
      "-3-oxopropyl)": 4327,
      "pent-2-en": 4328,
      "N-(2-amino-1-cyclohexylethyl)": 4329,
      "phosphoryl]": 4330,
      "[2-oxo-2-": 4331,
      "11,16": 4332,
      "pyridin-2-yl]amino]": 4333,
      "-2-sulfanylidene-1,3-thiazolidin-4-one": 4334,
      "4-[[4-": 4335,
      "prop-1-en-2-yl": 4336,
      "pyrimido": 4337,
      "(1-ethoxy": 4338,
      "oxatetracyclo[": 4339,
      "-2-iodo": 4340,
      "5,6,8-": 4341,
      "d]pyridazin": 4342,
      "-2-oxo-1-phenyl": 4343,
      "7,8-": 4344,
      "13]": 4345,
      "piperidin-1-yl)sulfonyl": 4346,
      "thiophen-2-ylethyl)": 4347,
      "-N-[[2-(": 4348,
      "-2-[5-": 4349,
      "-3-(3-methyl": 4350,
      "-5-(trifluoromethoxy)": 4351,
      "12,16": 4352,
      "(3S)-1-": 4353,
      "-5,5-dimethyl": 4354,
      "piperidin-3-ol": 4355,
      "-4-methyl-2,6-dioxo": 4356,
      "methoxy]-3-methoxy": 4357,
      "-2-hydroxypropyl]": 4358,
      "propylphenyl)": 4359,
      "8-dihydro-5H-": 4360,
      " benzoate": 4361,
      "phosphonic acid": 4362,
      "-1-(2-methylpropyl)": 4363,
      "prop-1-en-2-yl]": 4364,
      "ethyl]hydrazine": 4365,
      "-2,3-dihydro-1,4-benzodioxine": 4366,
      "pyrrolo[1,2-a]": 4367,
      "[1,2,4]triazolo[1,5-a]": 4368,
      "enyl)": 4369,
      "-5,6-dimethyl": 4370,
      "b][1,2,4]triazol": 4371,
      "-3,4-dihydropyrazol": 4372,
      "1H-1,2,4-triazol-5-yl)": 4373,
      "hydroxyethyl]": 4374,
      "d][1,3]di": 4375,
      "-N,4-dimethyl": 4376,
      "undeca": 4377,
      "-3-[[2-": 4378,
      "i3": 4379,
      "-1-(2-methylphenyl)": 4380,
      "[3,4-b]": 4381,
      "cyclopentyl]methyl]": 4382,
      "-3,3a,4,5,6,6a-": 4383,
      "-16-": 4384,
      "-N-propyl-N-pyrrolidin-3-yl": 4385,
      "-N-methyl-N-[2-(methylamino)ethyl]": 4386,
      "[Ti": 4387,
      "[G": 4388,
      "pyridin-1-yl)": 4389,
      "deuterio": 4390,
      "12,17": 4391,
      "spiro[1H-": 4392,
      "fluoro-2-methoxyphenyl)": 4393,
      "methylaminomethyl)piperidin-1-yl]": 4394,
      "azatetracyclo[7.": 4395,
      "-6-hydroxy": 4396,
      "6-trimethyl": 4397,
      "cyclohexane-1-carboxylate": 4398,
      "28,": 4399,
      "benzothi": 4400,
      "-6-oxo-1H-": 4401,
      "3-amino-N-[2-": 4402,
      "ethylcarbamoyl]": 4403,
      "-4-methylbenzenesulfonamide": 4404,
      "15(": 4405,
      "N-methyl-4-": 4406,
      "3a,4,5,6,6a-octahydro": 4407,
      "cyanato": 4408,
      "pyrrolo[2,3-d]pyrimidin": 4409,
      "ethylcarbamoyl)": 4410,
      "phenyl)-2-(2-methyl": 4411,
      "phenylpropyl)": 4412,
      "(E)-3-(": 4413,
      "-2-nitrophenyl)": 4414,
      "4-[(2-": 4415,
      "4-[(3-": 4416,
      "4-(difluoromethyl)": 4417,
      "methylaminomethyl)pyrrolidin-1-yl]": 4418,
      "1-O-": 4419,
      "[[(2S)-1-[[(2S)-1-": 4420,
      "chloropropyl)": 4421,
      "C57": 4422,
      "H72": 4423,
      "azabicyclo[2.2.2]octan": 4424,
      "9'-": 4425,
      "(1,3-benzothiazol": 4426,
      "-3,3,3-trifluoro": 4427,
      "-2,2-dimethylpropanamide": 4428,
      "(1-aminoethyl)piperidin-1-yl]-": 4429,
      "5a,": 4430,
      "-5-chlorothiophen-2-yl)": 4431,
      "cyclopentyl)methyl]": 4432,
      "-3-methylbutanamide;hydrochloride": 4433,
      "purin-9-yl)": 4434,
      "4-(4-": 4435,
      "-N-(pyridin-3-ylmethyl)": 4436,
      ",21]": 4437,
      "(2S)-2-amino-3-methyl-N-[2-": 4438,
      "-4-ethoxy": 4439,
      "N-(1-amino-2,4-dimethylpentan-2-yl)": 4440,
      "thiophen-3-ylmethyl)": 4441,
      "phenyl-": 4442,
      "-1,3-diazin": 4443,
      "phosphaniumyl]": 4444,
      "cycloheptylamino)": 4445,
      "bromo-2-(": 4446,
      "(1S,": 4447,
      "methyl 2-[2-": 4448,
      "methanimine": 4449,
      "-17-yl]": 4450,
      "prop-2-enoyloxy)": 4451,
      "triethyl": 4452,
      "(4-ethylpiperazin-1-yl)": 4453,
      "-1,2,4-triazol-3-yl]sulfanyl]acetyl]amino]": 4454,
      "morpholin-4-ylphenyl)": 4455,
      "),2(10": 4456,
      "pyrazolo[1,5-a]pyrimidine": 4457,
      "pentan-2-ol": 4458,
      "peroxy": 4459,
      "pentan-2-amine": 4460,
      "N-cyclopentyl": 4461,
      "-2-methylsulfonyl": 4462,
      "fluoro-3-methyl": 4463,
      "2-(3-methyl": 4464,
      "[1-(dimethylamino)": 4465,
      "4-bis": 4466,
      "methoxyanilino)": 4467,
      "13,15-": 4468,
      "-2-[(2-": 4469,
      "8(": 4470,
      "chloro-4-(": 4471,
      "N-(benzenesulfonyl)": 4472,
      "trit": 4473,
      "-1,3,5,7,": 4474,
      "[(2S,3R,4R,5": 4475,
      "fluorobenzoyl)": 4476,
      "N-(3-amino-2-methylpropyl)": 4477,
      "-3-iodo": 4478,
      "tet": 4479,
      "methoxyphenyl)methylidene]": 4480,
      "[(1-amino": 4481,
      "[(4-ethyl": 4482,
      "[methyl": 4483,
      "%13": 4484,
      "-3,4-diamine": 4485,
      "butoxyphenyl)": 4486,
      "nitropyridin-2-yl)": 4487,
      "[O": 4488,
      "-1-(4-methylphenyl)sulfonyl": 4489,
      "E,3": 4490,
      "4,5,6,7-tetrahydro": 4491,
      "chloro-4-fluorophenyl)methyl]": 4492,
      "8a,": 4493,
      "lambda6-": 4494,
      "c5": 4495,
      "pyrrol-1-yl": 4496,
      "S,13S,": 4497,
      "ethyl]butanamide": 4498,
      "sulfonate": 4499,
      "butyl ": 4500,
      "cyclobutane-1-carboxylic acid": 4501,
      "3-(5-": 4502,
      "-2-benzofuran": 4503,
      "pyrazolo[4,3-": 4504,
      "-3-thiophen-2-yl": 4505,
      "2-[cyclopropyl": 4506,
      "azaspiro[5.5]undecan": 4507,
      "bicyclo[2.2.1]heptane-2-carboxamide": 4508,
      "morpholin-4-ylmethyl)": 4509,
      "(4-methyl-1,3-thiazol-2-yl)": 4510,
      "-1,4-dithian-2-yl)": 4511,
      "-4-[3-": 4512,
      "S,9S,10": 4513,
      "-3-(1,": 4514,
      "amino-3,4-dihydro-2H-quinolin-1-yl)": 4515,
      "(3-hydroxy-3-methyl": 4516,
      "[1]benzothiolo[2,3-d]pyrimidin": 4517,
      "S,5R)": 4518,
      "(2,4,6-tri": 4519,
      "-2-methyl-3-phenyl": 4520,
      "H70": 4521,
      "(3-aminophenyl)": 4522,
      "1-cyclohexyl": 4523,
      "1-butyl": 4524,
      "-3-(2,2,2-trifluoroethoxy)": 4525,
      "cyclobutane": 4526,
      "phenyl]acetic acid": 4527,
      "-N-piperidin-4-yl-N-propyl": 4528,
      "benzimidazol-2-yl)methyl]": 4529,
      "(5-methylthiophen-2-yl)": 4530,
      "pyrrolidin-1-yl)methyl]": 4531,
      "[4-(5-": 4532,
      "isoindol-2-yl)": 4533,
      "-N-[(5-": 4534,
      "N-ethyl-4-": 4535,
      "-2,2-di": 4536,
      "pyrrolidin-3-yl)methyl]": 4537,
      "piperazin-2-yl]": 4538,
      "(N": 4539,
      "pyrimidine-5-carboxylate": 4540,
      "-1,4-diazepan-1-yl)": 4541,
      "-N-phenylacetamide": 4542,
      "-1-oxopropan-2-yl] ": 4543,
      "oxido)": 4544,
      "17-di": 4545,
      "(2-bromophenyl)": 4546,
      "pyridin-2-yl)sulfanyl": 4547,
      "3-amino-N-[1-": 4548,
      "2-[[": 4549,
      "[1]benzofuran": 4550,
      "pyrido[2,3-d]pyrimidine": 4551,
      "1-[(5-": 4552,
      "furan-5-yl)": 4553,
      "(2E,5": 4554,
      "19.": 4555,
      "[3-(methylaminomethyl)piperidin-1-yl]": 4556,
      "(4-fluorophenoxy)": 4557,
      "quinolin-8-yl": 4558,
      "[SiH]": 4559,
      "[1,3]thiazolo[3,2-b][1,2,4]triazol": 4560,
      "-2-[(3-": 4561,
      "ethylaminomethyl)piperidin-1-yl]": 4562,
      "phenyl]methanamine": 4563,
      "spiro[3.": 4564,
      "[(2-methylpropan-2-yl)oxycarbonyl]": 4565,
      "lambda5-": 4566,
      "anilino)-2-oxoethyl]amino]": 4567,
      "ethyl] ": 4568,
      "[(1S,": 4569,
      "-N-(4-methoxyphenyl)": 4570,
      "[(5Z)-5-": 4571,
      "2,3-dimethyl": 4572,
      "butanenitrile": 4573,
      "ethyl-5-": 4574,
      "furan-3-carboxamide": 4575,
      "oxolan-2-yl)methyl]": 4576,
      "N-(2-methoxyethyl)": 4577,
      "[(1-phenyl": 4578,
      "2-methyl-1-": 4579,
      "1H-imidazol-5-yl)": 4580,
      "silyloxy": 4581,
      "olo": 4582,
      "-8-oxo": 4583,
      "-1,4-benzoxazine": 4584,
      "indolizin": 4585,
      "4,4-di": 4586,
      "chromen-4-one": 4587,
      "c34": 4588,
      "propanoyl]pyrrolidine-2-carboxylic acid": 4589,
      "2-(2-methyl": 4590,
      "-3-ene-1-": 4591,
      "-2-phenylethenyl]": 4592,
      "-N-[": 4593,
      "1-[6-": 4594,
      "azetidin-3-yl)oxy": 4595,
      "N-(6-amino": 4596,
      "idin-2-yl)": 4597,
      "chromen-2-one": 4598,
      "[2-(1-methyl": 4599,
      "-6-methyloxan-2-yl]oxy": 4600,
      "-1,3-oxazol-4-yl]": 4601,
      "[2-(diethylamino)": 4602,
      "-2-methylidene": 4603,
      "-2-methoxybenzamide": 4604,
      "(3,4-dimethoxypyrrolidin-1-yl)": 4605,
      ".04,8.0": 4606,
      "propanimidamide": 4607,
      "-8-azabicyclo[3.2.1]octan": 4608,
      "methyl]propan-1-amine": 4609,
      "sulfanylphenyl]carbamoyl]": 4610,
      "(2,3-dihydrofuran-5-yl)": 4611,
      "(3-methoxy-3-methylbutyl)": 4612,
      "(2-methoxy-3,4-dimethylphenyl)": 4613,
      "(3R,4": 4614,
      "-2-carboximidamide": 4615,
      "-1,1-di": 4616,
      "(2,2,6,6-tetramethylmorpholin-4-yl)": 4617,
      "-3,4-dihydro-1H-isoquinolin-2-yl)": 4618,
      "benzo[f]": 4619,
      "[[4-amino-2-": 4620,
      "-4,5,6,7-tetrahydro-1-benzothiophen-2-yl)": 4621,
      "fluorene": 4622,
      "3-ethoxy": 4623,
      "(2,3,4,5,6-penta": 4624,
      "1-(4-fluorophenyl)": 4625,
      "-3,3-dimethylbutanamide": 4626,
      "ethyl]-1-": 4627,
      "(2,3-dihydro-1,4-benzodioxin-6-yl": 4628,
      "anyl": 4629,
      "4-acetyl": 4630,
      "amino-6-": 4631,
      "6,6-trimethyl": 4632,
      "-4-nitropyrazol": 4633,
      "-4,4a,": 4634,
      "2-(2-methoxyethylamino)": 4635,
      "(4-methylsulfonylphenyl)": 4636,
      "10a-": 4637,
      "azetidin-3-yl]oxy": 4638,
      "propyl] ": 4639,
      "e-4-sulfonamide": 4640,
      "quinolin-5-yl": 4641,
      "3,5-dichloro": 4642,
      "-4-(trifluoromethoxy)": 4643,
      "1,1-trifluoro": 4644,
      "[(3,4-dimethoxyphenyl)methyl]": 4645,
      "),4,8-tri": 4646,
      "benzimidazol-2-yl]ethyl]benzamide": 4647,
      "6-methoxypyridazin-3-yl)": 4648,
      "[(3R)-3-aminopyrrolidin-1-yl]": 4649,
      "d][1,3]dioxol": 4650,
      "2-[[2-[[2-[[2-amino-3-(1H-imidazol-5-yl)propanoyl]amino]": 4651,
      "-2,3-dihydro-1,4-benzodioxin-7-yl)": 4652,
      "-1,3,2-di": 4653,
      "(2-amino-2-oxoethyl)": 4654,
      "(3,9-diazabicyclo[4.2.1]": 4655,
      "3aH-": 4656,
      "b29": 4657,
      "S)-7-": 4658,
      "3-[(": 4659,
      "phenyl)-2-(4-methoxy": 4660,
      "2-[[2-[[2-[(2-amino-3-sulfanylpropanoyl)amino]": 4661,
      "(5-methylhexan-2-yl)": 4662,
      "enyl": 4663,
      "2-[[2-[[2-(2-aminopropanoylamino)": 4664,
      "[cH-]": 4665,
      "t30": 4666,
      "-2-(1-": 4667,
      "[CH2": 4668,
      "[2-methyl": 4669,
      "3.0.02,": 4670,
      "tetrazol-5-yl)sulfanyl": 4671,
      "(3R)-3-": 4672,
      "quinoline-3-carboxamide": 4673,
      "(2,3-dihydro-1-benzofuran": 4674,
      "N-[2-[1-": 4675,
      "tert-butyl 4-": 4676,
      "[2,3-di": 4677,
      "ylamine": 4678,
      "hydroxylamine": 4679,
      "-5-methylsulfanyl": 4680,
      "fluorophenoxy)methyl]": 4681,
      "-18-": 4682,
      "-2-(4-hydroxyphenyl)": 4683,
      "morpholin-2-yl": 4684,
      "2-(chloromethyl)": 4685,
      "phenoxy]acetamide": 4686,
      "2-[[2-[[2-[(2-aminoacetyl)amino]": 4687,
      "butan-2-one": 4688,
      "indolo": 4689,
      "-1,3,5-triazin-2-yl)": 4690,
      "-1-piperidin-4-yltriazole-4-carboxamide;hydrochloride": 4691,
      "henicosa-1(": 4692,
      "3,3,3-hexafluoropropan": 4693,
      "4,4,4-trifluoro": 4694,
      "-N-[(2-methyl": 4695,
      "(3,4-dihydro-2H-pyran-6-yl)": 4696,
      "heptanoic acid": 4697,
      "13.0": 4698,
      "(oxido)": 4699,
      "[(1-benzyl": 4700,
      "-5-yl]methyl]": 4701,
      "-hydroxyphosphoryl]oxy": 4702,
      "3-[(5-": 4703,
      "propylcarbamoyl)": 4704,
      "benzothiadiazol": 4705,
      "azetidin-1-yl)": 4706,
      "azolo[3,4-b][1,3,4]thiadiazol": 4707,
      "benzylsulfanyl": 4708,
      "19.0": 4709,
      "3-[[3-": 4710,
      "-1-carboxylate": 4711,
      "azabicyclo[2.2.2]oct": 4712,
      "azetidin-3-yl]oxyacetic acid": 4713,
      "buta": 4714,
      "thiophen-3-yl]": 4715,
      "N,N'-": 4716,
      "-1": 4717,
      "5,6-dimethyl-1,4-dithian-2-yl)": 4718,
      "(2H-tetrazol-5-yl)": 4719,
      "2-bromo-5-": 4720,
      "trideca-1(": 4721,
      "[[1-(2-amino": 4722,
      "3,5,5-tetramethyl": 4723,
      "-3-piperidin-4-ylpropanamide": 4724,
      "[(3,5-dimethyl-1,2-oxazol-4-yl)": 4725,
      "(2-hydroxyphenyl)": 4726,
      "3,4,4,5,": 4727,
      "(2,2-dimethylpropyl)": 4728,
      "benzoyloxy": 4729,
      "tert-butyl N-[1-[[2-(2-chloro-6-methyl": 4730,
      "tert-butyl N-[1-[[2-(butylamino)": 4731,
      "tert-butyl N-[1-[[2-(tert-butylamino)": 4732,
      "ia": 4733,
      "3-N-": 4734,
      "-5-nitropyridine": 4735,
      "[1,3]thiazolo[3,2-a]pyrimidin": 4736,
      "7.0.02,7.0": 4737,
      "[Br-]": 4738,
      "(3-hydroxyphenyl)": 4739,
      "[Br-1]": 4740,
      "(2-hydroxy-3-methylphenyl)": 4741,
      "oxetan-3-yl)": 4742,
      "1H-imidazol": 4743,
      "-6-propyl": 4744,
      "-2,3,4,5-": 4745,
      "pyrimidin-2-yl]amino]": 4746,
      "(1,4-diazepan-1-yl)": 4747,
      "pyrido[2,3-d]pyrimidin": 4748,
      "-[1,3]thiazolo[3,2-b][1,2,4]triazol": 4749,
      "oxide": 4750,
      "pyridazin-3-yl]": 4751,
      "azaspiro[4.4]": 4752,
      "-2-ylmethoxy)": 4753,
      "[(2S)-": 4754,
      "[I-]": 4755,
      "[(2R,3S,4R,5": 4756,
      "[I-1]": 4757,
      "[2-[3-": 4758,
      "imidazo[4,5-c]pyridin": 4759,
      "hexan-1-ol": 4760,
      "benzoxazin": 4761,
      "8,10-": 4762,
      "t31": 4763,
      "phenyl]ethanone": 4764,
      "benzimidazol-5-yl)": 4765,
      "4-[4-(": 4766,
      "[(2,6-dimethyl": 4767,
      "azaspiro[3.": 4768,
      "cyclobutylmethyl)": 4769,
      "icosa-": 4770,
      "4-ethoxy": 4771,
      "(2,4-dichlorophenoxy)": 4772,
      "propyl]acetamide": 4773,
      "-1H-pyrrole-2-carboxamide": 4774,
      "[(3S)-3-": 4775,
      "4.0.03,": 4776,
      "R,16": 4777,
      "-1-(3-methylphenyl)": 4778,
      "pyrimidine-5-carboxamide": 4779,
      "fluorop": 4780,
      "pyrrolo[2,3-b]": 4781,
      "]hept": 4782,
      "(6-": 4783,
      "tetrakis": 4784,
      "4,5-dimethoxy": 4785,
      "[(3-hydroxy": 4786,
      "nitroanilino)": 4787,
      "-3-cyano": 4788,
      "[(3-chlorophenyl)": 4789,
      "pentoxy": 4790,
      "Z,11": 4791,
      "-4-methyl-2-": 4792,
      "diethyl ": 4793,
      "prop-2-enoxy)": 4794,
      "propylsulfanyl)": 4795,
      "1H-pyrazol-4-yl)": 4796,
      "[(1-carboxy-2-hydroxy": 4797,
      "[4-[3-": 4798,
      "N-[(1-methyl": 4799,
      "(2-propan-2-yl": 4800,
      "-2-oxoethyl]carbamate": 4801,
      "ethyl-methylamino]": 4802,
      "cyclobutyl)amino]": 4803,
      "-(1-methyl": 4804,
      "18]": 4805,
      "piperidin-1-ylsulfonyl": 4806,
      "5,6,7,7a-hexahydro-2H-": 4807,
      "amino]acetic acid": 4808,
      "(2,3-difluorophenyl)": 4809,
      "-3(7),4,8-tri": 4810,
      "-1,2,3,4,": 4811,
      "trichloro": 4812,
      "[(6-chloro": 4813,
      "-9-methyl": 4814,
      "7-bromo": 4815,
      "(2-nitrophenyl)": 4816,
      "-2,5-dimethylphenyl)": 4817,
      "-4-(difluoromethyl)": 4818,
      "C64": 4819,
      "-N,N-di": 4820,
      "-1,4-benzoxazin-4-yl)": 4821,
      "[(4-methylphenyl)sulfonylamino]": 4822,
      "4-bis(": 4823,
      "3.1.04,": 4824,
      "-3,3-di": 4825,
      "-2-(4-fluorophenyl)": 4826,
      "29,3": 4827,
      "(4-methylphenoxy)": 4828,
      "(3,5-dimethoxyphenyl)": 4829,
      "phenyl]urea": 4830,
      "(4-propan-2-ylpiperidin-1-yl)": 4831,
      "-3,4,5-triol": 4832,
      "C66": 4833,
      "9,11-": 4834,
      "propan-1-amine;hydrochloride": 4835,
      "methyl]benzonitrile": 4836,
      "-6,8-di": 4837,
      "(3-methoxypropoxy)ethoxy]": 4838,
      "6-methoxypyrimidin-4-yl)": 4839,
      "propoxybenzamide": 4840,
      "-2-(2-methoxyethylamino)": 4841,
      "[(2,5-dimethyl": 4842,
      "28-": 4843,
      "chromen-3-yl)": 4844,
      "(2,3,4-tri": 4845,
      "pyrrolidin-2-yl]methanol": 4846,
      "-3,3a,4,5,6,6a-hexahydro-1H-": 4847,
      "N-[[3-(": 4848,
      "acetyl]amino]benzoate": 4849,
      "piperazin-1-yl)methanone": 4850,
      "phenanthrene": 4851,
      "[[6-(": 4852,
      "4-[(": 4853,
      "(3-methylbutyl)": 4854,
      ".018,": 4855,
      "naphthalen-1-ylmethyl)": 4856,
      "[Zr+2]": 4857,
      "1-(2-methyl": 4858,
      "-4-(2-methyl": 4859,
      "furan-2-carboxylate": 4860,
      "sulfate": 4861,
      "-1,3-thiazol-2-amine": 4862,
      "4-cyano": 4863,
      "pyrrolidin-2-yl)methyl]": 4864,
      "pyrrolidine-2,5-dione": 4865,
      "ethyl 2-[[2-": 4866,
      "-1,3-oxazol-4-yl)": 4867,
      "[(2-phenylacetyl)amino]": 4868,
      "3-hydroxy": 4869,
      "-6H-": 4870,
      "-N'-ethyl": 4871,
      "4-trimethyl": 4872,
      "imidazole-4-carboxylate": 4873,
      ";trihydrochloride": 4874,
      "7.0.02,10.03,8.0": 4875,
      "5,6,8-tetr": 4876,
      "chloro-5-fluorophenyl)methyl]": 4877,
      "-3-[(4-": 4878,
      "sulfanylanilino]": 4879,
      "N-[2-[4-": 4880,
      "6-fluoro-2,3-dihydroindol-1-yl)": 4881,
      "thiane": 4882,
      "(4-methoxyphenoxy)": 4883,
      "H61": 4884,
      "[1,2-c]": 4885,
      "[3-(aminomethyl)pyrrolidin-1-yl]": 4886,
      "-[3-(": 4887,
      "(phenyl)methyl]": 4888,
      "pyrazol-3-amine": 4889,
      "methyl]benzoate": 4890,
      "-6-sulfonamide": 4891,
      "oxetan-3-yloxy)": 4892,
      "-[1,2]oxazolo[5,4-b]pyridine": 4893,
      "H74": 4894,
      "-1,2-oxazol-4-yl)methyl]": 4895,
      "3-[[": 4896,
      "imidazole-4-carboxamide": 4897,
      "-2-(4-methoxy": 4898,
      "azaspiro[4.5]dec": 4899,
      "3-phenyl": 4900,
      "chlorobenzoyl)": 4901,
      "[2-(5-": 4902,
      "1,3-dimethyl": 4903,
      "carbazol-3-yl)": 4904,
      "pyridine-2,4-diamine": 4905,
      "fluorobenzamide": 4906,
      "[Ge]": 4907,
      "N-[3-(dimethylamino)": 4908,
      "[2-(3,4-di": 4909,
      "methyl 6-": 4910,
      "[benzyl": 4911,
      "8,8-": 4912,
      "-N-(1-methyl": 4913,
      "-2-pyridin-3-yl": 4914,
      "-2-(2-methylphenyl)": 4915,
      "-(4-methyl": 4916,
      "-1-oxohexan": 4917,
      "pyrrol-1-yl)": 4918,
      "azoc": 4919,
      "methylideneamino]acetamide": 4920,
      "cyclopropyl]methyl]": 4921,
      "5-amino-N-": 4922,
      "(3S,4": 4923,
      "cyclopropylmethylamino)piperidin-1-yl]": 4924,
      "[(3,4-dichlorophenyl)": 4925,
      "-4-(3-": 4926,
      "2-tert-butyl": 4927,
      "butan-2-yloxy": 4928,
      "9,9a-": 4929,
      "imidazo[1,5-a]": 4930,
      "[2-(2,2,2-trifluoro": 4931,
      "7'-": 4932,
      "1.02,7.0": 4933,
      "-2-oxoethoxy)": 4934,
      "cyclohexyl)oxy": 4935,
      "18.": 4936,
      "phenyl]methylidene]": 4937,
      "-4-(trifluoromethyl)pyridin-2-amine": 4938,
      "ethioamide": 4939,
      "3,3-di": 4940,
      "S,6R)-3,4,5-trihydroxy-6-(hydroxymethyl)oxan-2-yl]oxy": 4941,
      "-1-[3-(": 4942,
      "-5,6-dihydro-4H-cyclopenta[c]": 4943,
      "-1,3-dioxolan-4-yl]": 4944,
      "3-[[2-(": 4945,
      "-3-[[4-": 4946,
      "-4-oxobutanoate": 4947,
      "-1,3-benzoxazole": 4948,
      "[2-(1-aminoethyl)": 4949,
      "7-tri": 4950,
      "-3-yl]acetic acid": 4951,
      "chlorothiophen-2-yl)methyl]": 4952,
      "-2,8-di": 4953,
      "-2,4-dimethoxyphenyl)": 4954,
      "azabicyclo[2.2.2]octan-3-yl)": 4955,
      "6,7-dimethoxy": 4956,
      "-5,8-di": 4957,
      "carbonyl)amino]propanoic acid": 4958,
      "6-chloro-N-": 4959,
      ".022,": 4960,
      "-3-(4-fluorophenyl)": 4961,
      "e-4-carbonitrile": 4962,
      "methyl (2S)-2-": 4963,
      "fluor": 4964,
      "4.0.03,8]": 4965,
      "[(3,4-dimethoxy": 4966,
      "pyridin-2-yl)amino]": 4967,
      "[(E)-2-phenylethenyl]": 4968,
      "morpholin-4-ylpropyl)": 4969,
      "methyl 1-": 4970,
      "azaspiro[5.5]undecane": 4971,
      "C62": 4972,
      "-N-[(4-methyl": 4973,
      "bicyclo[2.2.1]heptanyl]": 4974,
      "en-12-yl]": 4975,
      "-propylamino]": 4976,
      "4-chloro-2-": 4977,
      "-2-phenylacetic acid": 4978,
      "-1H-indazol": 4979,
      "4-methyl-2-": 4980,
      "5-[3-": 4981,
      "pentan-2-yloxy": 4982,
      "carbamothioyl": 4983,
      "quinolin-1-yl)": 4984,
      "(3,4-dihydro-2H-1,5-benzodioxepin": 4985,
      "piperidin-4-ylmethyl)": 4986,
      "oxy]phenyl]": 4987,
      "oxolane-2-carboxamide": 4988,
      "decanoate": 4989,
      "-5-[4-": 4990,
      "morpholine-2-carboxamide;hydrochloride": 4991,
      "2-[[2-[[2-(2,6-diaminohexanoylamino)": 4992,
      "(2-chlorophenoxy)": 4993,
      "c35": 4994,
      "carbonimidoyl]": 4995,
      "[(1,1-dioxothiolan-3-yl)": 4996,
      "-4-nitrobenzamide": 4997,
      "-6,7-dihydro": 4998,
      "S,6S)": 4999
    },
    "merges": [
      [
        "C",
        "]"
      ],
      [
        "[",
        "C]"
      ],
      [
        "1",
        "]"
      ],
      [
        "[",
        "="
      ],
      [
        "a",
        "n"
      ],
      [
        "c",
        "h"
      ],
      [
        "B",
        "r"
      ],
      [
        "an",
        "ch"
      ],
      [
        "Br",
        "anch"
      ],
      [
        "Branch",
        "1]"
      ],
      [
        "i",
        "n"
      ],
      [
        "[=",
        "C]"
      ],
      [
        "R",
        "in"
      ],
      [
        "Rin",
        "g"
      ],
      [
        "[",
        "Ring"
      ],
      [
        "y",
        "l"
      ],
      [
        "[Ring",
        "1]"
      ],
      [
        "[",
        "Branch1]"
      ],
      [
        "N",
        "]"
      ],
      [
        "O",
        "]"
      ],
      [
        "2",
        "]"
      ],
      [
        "[",
        "N]"
      ],
      [
        "[=",
        "Branch1]"
      ],
      [
        "H",
        "2"
      ],
      [
        "t",
        "h"
      ],
      [
        "1",
        "3"
      ],
      [
        "1",
        "2"
      ],
      [
        "1",
        "4"
      ],
      [
        "1",
        "1"
      ],
      [
        "1",
        "0"
      ],
      [
        "e",
        "th"
      ],
      [
        "1",
        "5"
      ],
      [
        "1",
        "6"
      ],
      [
        "2",
        "-"
      ],
      [
        "1",
        "7"
      ],
      [
        "1",
        "8"
      ],
      [
        "[",
        "O]"
      ],
      [
        "Branch",
        "2]"
      ],
      [
        "r",
        "o"
      ],
      [
        "1",
        "9"
      ],
      [
        "[=",
        "O]"
      ],
      [
        "eth",
        "yl"
      ],
      [
        "e",
        "n"
      ],
      [
        "i",
        "d"
      ],
      [
        "2",
        "0"
      ],
      [
        "a",
        "m"
      ],
      [
        "3",
        "-"
      ],
      [
        "4",
        "-"
      ],
      [
        "m",
        "ethyl"
      ],
      [
        "1",
        "S"
      ],
      [
        "H",
        "3"
      ],
      [
        "2",
        "1"
      ],
      [
        "o",
        "x"
      ],
      [
        "[",
        "#"
      ],
      [
        "-",
        "2-"
      ],
      [
        "yl",
        ")"
      ],
      [
        "2",
        "2"
      ],
      [
        "[Ring",
        "2]"
      ],
      [
        "c",
        "1"
      ],
      [
        "[",
        "Branch2]"
      ],
      [
        "*",
        ":"
      ],
      [
        "[",
        "*:"
      ],
      [
        "p",
        "h"
      ],
      [
        "2",
        "3"
      ],
      [
        "1",
        "-"
      ],
      [
        "C",
        "l"
      ],
      [
        "ph",
        "en"
      ],
      [
        "2",
        "4"
      ],
      [
        "yl",
        "]"
      ],
      [
        "am",
        "in"
      ],
      [
        "[=",
        "N]"
      ],
      [
        "2",
        "5"
      ],
      [
        "[",
        "S"
      ],
      [
        "N",
        "2"
      ],
      [
        "2",
        "6"
      ],
      [
        "d",
        "i"
      ],
      [
        "[S",
        "]"
      ],
      [
        "amin",
        "o"
      ],
      [
        "l",
        "o"
      ],
      [
        "O",
        "2"
      ],
      [
        "-",
        "3-"
      ],
      [
        "N",
        "-"
      ],
      [
        "N",
        "3"
      ],
      [
        "5",
        "-"
      ],
      [
        "id",
        "e"
      ],
      [
        "-",
        "1-"
      ],
      [
        "2",
        "7"
      ],
      [
        "a",
        "z"
      ],
      [
        "ro",
        "p"
      ],
      [
        "o",
        "l"
      ],
      [
        "ox",
        "y"
      ],
      [
        "[#",
        "Branch1]"
      ],
      [
        "p",
        "rop"
      ],
      [
        "-",
        "4-"
      ],
      [
        "2",
        "8"
      ],
      [
        "O",
        "3"
      ],
      [
        "id",
        "in"
      ],
      [
        "[",
        "F"
      ],
      [
        "[F",
        "]"
      ],
      [
        "[*:",
        "1]"
      ],
      [
        "[*:",
        "2]"
      ],
      [
        "y",
        "r"
      ],
      [
        "am",
        "ide"
      ],
      [
        "y",
        "d"
      ],
      [
        "h",
        "yd"
      ],
      [
        "c",
        "a"
      ],
      [
        "[=",
        "Branch2]"
      ],
      [
        "2",
        "9"
      ],
      [
        "p",
        "yr"
      ],
      [
        "r",
        "b"
      ],
      [
        "ca",
        "rb"
      ],
      [
        "phen",
        "yl)"
      ],
      [
        "[",
        "Cl"
      ],
      [
        "hyd",
        "ro"
      ],
      [
        "[Cl",
        "]"
      ],
      [
        "o",
        "n"
      ],
      [
        "3",
        "0"
      ],
      [
        "[",
        "("
      ],
      [
        "a",
        "c"
      ],
      [
        "2",
        ","
      ],
      [
        "1",
        ","
      ],
      [
        "eth",
        "oxy"
      ],
      [
        "b",
        "en"
      ],
      [
        "ben",
        "z"
      ],
      [
        "ch",
        "lo"
      ],
      [
        "1",
        "H3"
      ],
      [
        "N",
        "4"
      ],
      [
        "3",
        "1"
      ],
      [
        "[#",
        "Branch2]"
      ],
      [
        "az",
        "ol"
      ],
      [
        "O",
        "4"
      ],
      [
        "-",
        "N-"
      ],
      [
        "2",
        "H3"
      ],
      [
        "t",
        "r"
      ],
      [
        "3",
        "2"
      ],
      [
        "[",
        "2-"
      ],
      [
        "prop",
        "an"
      ],
      [
        "amino",
        "]"
      ],
      [
        "-",
        "5-"
      ],
      [
        "t",
        "e"
      ],
      [
        "m",
        "ethoxy"
      ],
      [
        "6",
        "-"
      ],
      [
        "c",
        "y"
      ],
      [
        "u",
        "t"
      ],
      [
        "b",
        "ut"
      ],
      [
        "3",
        ","
      ],
      [
        "l",
        "u"
      ],
      [
        "f",
        "lu"
      ],
      [
        "flu",
        "o"
      ],
      [
        "3",
        "3"
      ],
      [
        "c",
        "lo"
      ],
      [
        "-",
        "1,"
      ],
      [
        "[#",
        "C]"
      ],
      [
        "u",
        "l"
      ],
      [
        "s",
        "ul"
      ],
      [
        "sul",
        "f"
      ],
      [
        "cy",
        "clo"
      ],
      [
        "fluo",
        "ro"
      ],
      [
        "carb",
        "ox"
      ],
      [
        "ox",
        "o"
      ],
      [
        "1",
        "H"
      ],
      [
        "th",
        "i"
      ],
      [
        "[",
        "N"
      ],
      [
        "(",
        "2-"
      ],
      [
        "3",
        "4"
      ],
      [
        "tr",
        "i"
      ],
      [
        "(",
        "4-"
      ],
      [
        "h",
        "3"
      ],
      [
        "p",
        "i"
      ],
      [
        "C",
        "15"
      ],
      [
        "C",
        "14"
      ],
      [
        "[",
        "P"
      ],
      [
        "C",
        "16"
      ],
      [
        "chlo",
        "ro"
      ],
      [
        "methyl",
        "]"
      ],
      [
        "h",
        "2"
      ],
      [
        "e",
        "t"
      ],
      [
        "p",
        "e"
      ],
      [
        "pe",
        "r"
      ],
      [
        "pi",
        "per"
      ],
      [
        "[P",
        "]"
      ],
      [
        "3",
        "5"
      ],
      [
        "ac",
        "et"
      ],
      [
        "3",
        "H3"
      ],
      [
        "C",
        "13"
      ],
      [
        "h",
        "1"
      ],
      [
        "C",
        "17"
      ],
      [
        "[",
        "4-"
      ],
      [
        "h",
        "4"
      ],
      [
        "methyl",
        ")"
      ],
      [
        "3",
        "6"
      ],
      [
        "di",
        "methyl"
      ],
      [
        "i",
        "c"
      ],
      [
        "O",
        "5"
      ],
      [
        "ac",
        "id"
      ],
      [
        "ic",
        " "
      ],
      [
        "ic ",
        "acid"
      ],
      [
        "on",
        "e"
      ],
      [
        "C",
        "18"
      ],
      [
        "i",
        "m"
      ],
      [
        "en",
        "t"
      ],
      [
        "p",
        "ent"
      ],
      [
        "O",
        "-"
      ],
      [
        "N",
        "5"
      ],
      [
        "C",
        "12"
      ],
      [
        "(",
        "3-"
      ],
      [
        "[",
        "O-"
      ],
      [
        "h",
        "e"
      ],
      [
        "idin",
        "e"
      ],
      [
        "phen",
        "yl]"
      ],
      [
        "H2",
        "0"
      ],
      [
        "a",
        "te"
      ],
      [
        "hydro",
        "x"
      ],
      [
        "-2-",
        "yl)"
      ],
      [
        "hydrox",
        "y"
      ],
      [
        "H2",
        "2"
      ],
      [
        "H2",
        "1"
      ],
      [
        "3",
        "7"
      ],
      [
        "H",
        "19"
      ],
      [
        "C",
        "19"
      ],
      [
        "m",
        "o"
      ],
      [
        "carbox",
        "amide"
      ],
      [
        "phen",
        "yl"
      ],
      [
        "H2",
        "3"
      ],
      [
        "[N",
        "+"
      ],
      [
        "ethyl",
        "]"
      ],
      [
        "benz",
        "o"
      ],
      [
        "H",
        "18"
      ],
      [
        "chlo",
        "r"
      ],
      [
        "chlor",
        "ide"
      ],
      [
        "h",
        "5"
      ],
      [
        "-2-",
        "yl"
      ],
      [
        "pyr",
        "ro"
      ],
      [
        "amino",
        ")"
      ],
      [
        "hydro",
        "chloride"
      ],
      [
        "H2",
        "4"
      ],
      [
        "[",
        "3-"
      ],
      [
        "[=",
        "Ring"
      ],
      [
        "amin",
        "e"
      ],
      [
        "s",
        "1"
      ],
      [
        "S",
        "2"
      ],
      [
        "3",
        "8"
      ],
      [
        "an",
        "o"
      ],
      [
        "4",
        ","
      ],
      [
        "eth",
        "an"
      ],
      [
        "pyrro",
        "l"
      ],
      [
        "[",
        "1-"
      ],
      [
        "-2-",
        "yl]"
      ],
      [
        "H",
        "17"
      ],
      [
        "C",
        "20"
      ],
      [
        "en",
        "e"
      ],
      [
        "he",
        "x"
      ],
      [
        "-",
        "6-"
      ],
      [
        "H",
        "]"
      ],
      [
        "[",
        "n"
      ],
      [
        "H2",
        "5"
      ],
      [
        "sulf",
        "on"
      ],
      [
        "C",
        "11"
      ],
      [
        "[",
        "Br"
      ],
      [
        "H",
        "16"
      ],
      [
        "az",
        "in"
      ],
      [
        "[Br",
        "]"
      ],
      [
        "3",
        "9"
      ],
      [
        "[=Ring",
        "1]"
      ],
      [
        "-",
        "2,"
      ],
      [
        "F",
        "3"
      ],
      [
        ";",
        "hydrochloride"
      ],
      [
        "4",
        "0"
      ],
      [
        "[n",
        "H]"
      ],
      [
        "b",
        "ro"
      ],
      [
        "H2",
        "6"
      ],
      [
        "4-",
        "di"
      ],
      [
        "l",
        "2"
      ],
      [
        "bro",
        "mo"
      ],
      [
        "sulf",
        "an"
      ],
      [
        "C",
        "21"
      ],
      [
        "piper",
        "idin"
      ],
      [
        "thi",
        "o"
      ],
      [
        "H",
        "15"
      ],
      [
        "-1,",
        "3-"
      ],
      [
        "yl]",
        "amino]"
      ],
      [
        "[2-",
        "("
      ],
      [
        "4",
        "H3"
      ],
      [
        "pyr",
        "idin"
      ],
      [
        "9",
        "H2"
      ],
      [
        "7",
        "-"
      ],
      [
        "4",
        "1"
      ],
      [
        "im",
        "id"
      ],
      [
        "carbox",
        "yl"
      ],
      [
        "-3-",
        "yl)"
      ],
      [
        "carb",
        "on"
      ],
      [
        "-1-",
        "yl]"
      ],
      [
        "propan",
        "o"
      ],
      [
        "H2",
        "7"
      ],
      [
        "h",
        "6"
      ],
      [
        "R",
        ","
      ],
      [
        "acet",
        "amide"
      ],
      [
        "S",
        ")"
      ],
      [
        "H",
        "14"
      ],
      [
        "C",
        "22"
      ],
      [
        "prop",
        "yl"
      ],
      [
        "[N",
        "H"
      ],
      [
        "O",
        "6"
      ],
      [
        "8",
        "H2"
      ],
      [
        "4",
        "2"
      ],
      [
        "but",
        "yl"
      ],
      [
        "[O-",
        "]"
      ],
      [
        "benz",
        "amide"
      ],
      [
        "1H",
        "-"
      ],
      [
        "F",
        "2"
      ],
      [
        "ol",
        "in"
      ],
      [
        "-1-",
        "yl)"
      ],
      [
        "[N+",
        "]"
      ],
      [
        "[NH",
        "1]"
      ],
      [
        "C",
        "10"
      ],
      [
        "(",
        "2,"
      ],
      [
        "5",
        ","
      ],
      [
        "H2",
        "8"
      ],
      [
        "but",
        "an"
      ],
      [
        "-",
        "3,"
      ],
      [
        "S",
        ","
      ],
      [
        "carb",
        "am"
      ],
      [
        "4",
        "3"
      ],
      [
        "-2-",
        "methyl"
      ],
      [
        "R",
        ")"
      ],
      [
        "methoxy",
        "phenyl)"
      ],
      [
        "m",
        "ethan"
      ],
      [
        "thio",
        "phen"
      ],
      [
        "thi",
        "azol"
      ],
      [
        "sulfan",
        "yl"
      ],
      [
        "phen",
        "oxy"
      ],
      [
        "N",
        "6"
      ],
      [
        "m",
        "0"
      ],
      [
        "C",
        "23"
      ],
      [
        "fluoro",
        "phenyl)"
      ],
      [
        "H",
        "13"
      ],
      [
        "[O-",
        "1]"
      ],
      [
        "pyrrol",
        "idin"
      ],
      [
        "[(",
        "2-"
      ],
      [
        "4",
        "4"
      ],
      [
        "u",
        "r"
      ],
      [
        "cyclo",
        "hex"
      ],
      [
        "6",
        ","
      ],
      [
        "7",
        "H2"
      ],
      [
        ".",
        "0"
      ],
      [
        "te",
        "tr"
      ],
      [
        "-4-",
        "yl)"
      ],
      [
        "tri",
        "fluoro"
      ],
      [
        "[S",
        "i"
      ],
      [
        "h",
        "7"
      ],
      [
        "-2-",
        "oxo"
      ],
      [
        "hydro",
        "-"
      ],
      [
        "ethyl",
        ")"
      ],
      [
        "-4-",
        "methyl"
      ],
      [
        "in",
        "d"
      ],
      [
        "an",
        "e"
      ],
      [
        "pyr",
        "azol"
      ],
      [
        "[Si",
        "]"
      ],
      [
        "imid",
        "azol"
      ],
      [
        "-3-",
        "methyl"
      ],
      [
        "i",
        "l"
      ],
      [
        "(",
        "1-"
      ],
      [
        "sulfon",
        "yl"
      ],
      [
        "H2",
        "9"
      ],
      [
        "8",
        "-"
      ],
      [
        "chloro",
        "phenyl)"
      ],
      [
        "4",
        "5"
      ],
      [
        "C",
        "24"
      ],
      [
        "H",
        "12"
      ],
      [
        "te",
        "r"
      ],
      [
        "9",
        "H"
      ],
      [
        "[",
        "[2-"
      ],
      [
        "pyr",
        "im"
      ],
      [
        "5-",
        "di"
      ],
      [
        "piper",
        "azin"
      ],
      [
        "-3-",
        "yl]"
      ],
      [
        "[N+",
        "1]"
      ],
      [
        "-",
        "butyl"
      ],
      [
        "q",
        "u"
      ],
      [
        "qu",
        "in"
      ],
      [
        "t",
        "-butyl"
      ],
      [
        "[(",
        "4-"
      ],
      [
        "ter",
        "t-butyl"
      ],
      [
        "[",
        "5-"
      ],
      [
        "m",
        "1"
      ],
      [
        "4",
        "6"
      ],
      [
        "i",
        "t"
      ],
      [
        "H3",
        "0"
      ],
      [
        "propan",
        "-2-yl"
      ],
      [
        "d",
        "e"
      ],
      [
        "(2-",
        "methyl"
      ],
      [
        "[4-",
        "("
      ],
      [
        "[",
        "1,"
      ],
      [
        "C",
        "9"
      ],
      [
        "n",
        "it"
      ],
      [
        "il",
        "in"
      ],
      [
        "an",
        "ilin"
      ],
      [
        "[(",
        "2"
      ],
      [
        "4",
        "7"
      ],
      [
        "H",
        "-"
      ],
      [
        "yl)",
        "amino]"
      ],
      [
        "C",
        "25"
      ],
      [
        "ur",
        "an"
      ],
      [
        "f",
        "uran"
      ],
      [
        "phenoxy",
        ")"
      ],
      [
        "8",
        "H"
      ],
      [
        "id",
        "ene"
      ],
      [
        "-2-",
        "en"
      ],
      [
        "ind",
        "ol"
      ],
      [
        "cyclo",
        "pent"
      ],
      [
        "but",
        "ano"
      ],
      [
        "4",
        "8"
      ],
      [
        "6",
        "H2"
      ],
      [
        "3-",
        "di"
      ],
      [
        "b",
        "i"
      ],
      [
        "h",
        "8"
      ],
      [
        "-1,",
        "2,"
      ],
      [
        "propan",
        "amide"
      ],
      [
        "-1,3-",
        "thiazol"
      ],
      [
        "(",
        "2"
      ],
      [
        "H",
        "11"
      ],
      [
        "nit",
        "ro"
      ],
      [
        "-2-",
        "("
      ],
      [
        "-3-",
        "yl"
      ],
      [
        "carboxyl",
        "ic acid"
      ],
      [
        "E",
        ")"
      ],
      [
        "quin",
        "olin"
      ],
      [
        "tetr",
        "a"
      ],
      [
        "4",
        "9"
      ],
      [
        "pyrim",
        "idin"
      ],
      [
        "C",
        "26"
      ],
      [
        "carboxyl",
        "ate"
      ],
      [
        "carbam",
        "o"
      ],
      [
        "ox",
        "a"
      ],
      [
        "7",
        ","
      ],
      [
        "[3-",
        "("
      ],
      [
        "o",
        "c"
      ],
      [
        "(4-",
        "methyl"
      ],
      [
        "-1-",
        "yl"
      ],
      [
        "-",
        "7-"
      ],
      [
        "H3",
        "1"
      ],
      [
        "methyl",
        " "
      ],
      [
        "-4-",
        "yl"
      ],
      [
        "pyr",
        "idine"
      ],
      [
        "3,",
        "4-"
      ],
      [
        "'",
        "-"
      ],
      [
        "[#",
        "N]"
      ],
      [
        "tri",
        "azol"
      ],
      [
        "benz",
        "ene"
      ],
      [
        "methan",
        "one"
      ],
      [
        "-3-",
        "("
      ],
      [
        "oc",
        "t"
      ],
      [
        "h",
        "9"
      ],
      [
        "-4-",
        "yl]"
      ],
      [
        "H",
        "10"
      ],
      [
        "5",
        "0"
      ],
      [
        "9",
        "-"
      ],
      [
        "7",
        "H"
      ],
      [
        "cyclo",
        "propyl"
      ],
      [
        "O",
        "7"
      ],
      [
        "prop",
        "-2-en"
      ],
      [
        "-2-",
        "carboxamide"
      ],
      [
        "trifluoro",
        "methyl)"
      ],
      [
        "anilin",
        "o"
      ],
      [
        "-5-",
        "yl)"
      ],
      [
        "az",
        "a"
      ],
      [
        "piper",
        "idine"
      ],
      [
        "r",
        "ph"
      ],
      [
        "5",
        "H3"
      ],
      [
        "-1,2,",
        "4-"
      ],
      [
        "prop",
        "yl)"
      ],
      [
        "az",
        "o"
      ],
      [
        "rph",
        "olin"
      ],
      [
        "mo",
        "rpholin"
      ],
      [
        "C",
        "8"
      ],
      [
        "prop",
        "yl]"
      ],
      [
        "-N-",
        "methyl"
      ],
      [
        "cyclo",
        "["
      ],
      [
        "pent",
        "ano"
      ],
      [
        "5",
        "1"
      ],
      [
        "[(",
        "3-"
      ],
      [
        "-",
        "1H-"
      ],
      [
        "5-",
        "dimethyl"
      ],
      [
        "2",
        "."
      ],
      [
        "pyrrol",
        "idine"
      ],
      [
        "H3",
        "2"
      ],
      [
        "C",
        "27"
      ],
      [
        "(",
        "5-"
      ],
      [
        "a",
        "l"
      ],
      [
        "-2-oxo",
        "ethyl]"
      ],
      [
        "-3-",
        "carboxamide"
      ],
      [
        "5",
        "2"
      ],
      [
        "6-",
        "di"
      ],
      [
        "sulfon",
        "amide"
      ],
      [
        "[=",
        "S"
      ],
      [
        "[=S",
        "]"
      ],
      [
        "a",
        "-"
      ],
      [
        "ox",
        "ol"
      ],
      [
        "yl",
        "amino)"
      ],
      [
        "amino",
        "-N-"
      ],
      [
        "[",
        "2,"
      ],
      [
        "pent",
        "an"
      ],
      [
        "5",
        "H2"
      ],
      [
        "p",
        "t"
      ],
      [
        "he",
        "pt"
      ],
      [
        "di",
        "azol"
      ],
      [
        "h",
        "10"
      ],
      [
        "ph",
        "th"
      ],
      [
        "H",
        "9"
      ],
      [
        "5",
        "3"
      ],
      [
        "ox",
        "azol"
      ],
      [
        "N",
        "7"
      ],
      [
        "2-",
        "["
      ],
      [
        "C",
        "28"
      ],
      [
        "e",
        "-4-"
      ],
      [
        "-1,",
        "2-"
      ],
      [
        "5",
        "4"
      ],
      [
        "rop",
        "yr"
      ],
      [
        "l",
        "e"
      ],
      [
        "(",
        "3,"
      ],
      [
        "a",
        "phth"
      ],
      [
        "6",
        "H"
      ],
      [
        "i",
        "tri"
      ],
      [
        "itri",
        "le"
      ],
      [
        "(3-",
        "methyl"
      ],
      [
        "-1-",
        "oxo"
      ],
      [
        ")",
        ","
      ],
      [
        "amino",
        "methyl)"
      ],
      [
        "benz",
        "imidazol"
      ],
      [
        "tert-butyl",
        " "
      ],
      [
        "-",
        "4,"
      ],
      [
        "a",
        "]"
      ],
      [
        "H3",
        "3"
      ],
      [
        "methyl",
        "amino)"
      ],
      [
        "n",
        "aphth"
      ],
      [
        "anilino",
        ")"
      ],
      [
        "5,",
        "6,"
      ],
      [
        "ethyl",
        " "
      ],
      [
        "S)",
        "-2-"
      ],
      [
        "H",
        "8"
      ],
      [
        "de",
        "c"
      ],
      [
        "(",
        "1,"
      ],
      [
        "5",
        "5"
      ],
      [
        "(2-",
        "methoxy"
      ],
      [
        "benz",
        "yl"
      ],
      [
        "azo",
        "lo"
      ],
      [
        "propan",
        "-1-"
      ],
      [
        "b",
        "]"
      ],
      [
        "[",
        "[1-"
      ],
      [
        "-",
        "N"
      ],
      [
        "-4-",
        "oxo"
      ],
      [
        "5",
        "6"
      ],
      [
        "C",
        "7"
      ],
      [
        "yl",
        "amino]"
      ],
      [
        "h",
        "11"
      ],
      [
        "2",
        "C"
      ],
      [
        "propano",
        "ic acid"
      ],
      [
        "naphth",
        "al"
      ],
      [
        "bi",
        "cyclo["
      ],
      [
        "butan",
        "amide"
      ],
      [
        "i",
        "o"
      ],
      [
        "-5-",
        "methyl"
      ],
      [
        "8",
        ","
      ],
      [
        "N-",
        "[1-"
      ],
      [
        "-",
        "8-"
      ],
      [
        "C",
        "29"
      ],
      [
        "thiophen",
        "e"
      ],
      [
        "s",
        "o"
      ],
      [
        "e",
        "p"
      ],
      [
        "piperazin",
        "-1-yl]"
      ],
      [
        "carbam",
        "ate"
      ],
      [
        "methyl",
        "amino]"
      ],
      [
        "H3",
        "4"
      ],
      [
        "4",
        "]"
      ],
      [
        "methyl",
        "idene"
      ],
      [
        "[",
        "I"
      ],
      [
        ";",
        "di"
      ],
      [
        "id",
        "o"
      ],
      [
        "-3-",
        "phenyl"
      ],
      [
        "d",
        "o"
      ],
      [
        "5",
        "7"
      ],
      [
        "piperidin",
        "-1-yl]"
      ],
      [
        "a",
        ","
      ],
      [
        "4",
        "H2"
      ],
      [
        "d",
        "]"
      ],
      [
        "o",
        "s"
      ],
      [
        "-5-",
        "("
      ],
      [
        "pi",
        "ro"
      ],
      [
        ";di",
        "hydrochloride"
      ],
      [
        "s",
        "piro"
      ],
      [
        "hydro-",
        "1H-"
      ],
      [
        "H",
        "6"
      ],
      [
        "H",
        "7"
      ],
      [
        "en",
        "o"
      ],
      [
        "i",
        "so"
      ],
      [
        "cy",
        "ano"
      ],
      [
        "5",
        "8"
      ],
      [
        "c",
        "]"
      ],
      [
        "acet",
        "ic acid"
      ],
      [
        "O",
        "8"
      ],
      [
        "di",
        "fluoro"
      ],
      [
        "N-",
        "(2-"
      ],
      [
        "[(",
        "5-"
      ],
      [
        "[2,",
        "3-"
      ],
      [
        "[I",
        "]"
      ],
      [
        "-3,",
        "4-di"
      ],
      [
        "-2-",
        "one"
      ],
      [
        "-1,2,4-",
        "triazol"
      ],
      [
        "oxy",
        ")"
      ],
      [
        "ox",
        "an"
      ],
      [
        "[(",
        "1-"
      ],
      [
        "amino",
        "-2-"
      ],
      [
        "C",
        "30"
      ],
      [
        "methoxy",
        ")"
      ],
      [
        "N-",
        "[2-"
      ],
      [
        "3-",
        "dimethyl"
      ],
      [
        "propan",
        "-2-yl)"
      ],
      [
        "sulfan",
        "yl]"
      ],
      [
        "-2-",
        "amine"
      ],
      [
        "ethoxy",
        ")"
      ],
      [
        "bi",
        "s"
      ],
      [
        "az",
        "ep"
      ],
      [
        "propan",
        "-2-yl]"
      ],
      [
        "4,",
        "5-"
      ],
      [
        "acet",
        "yl]amino]"
      ],
      [
        "2",
        "H-"
      ],
      [
        "-2,",
        "3-di"
      ],
      [
        "carbon",
        "yl)"
      ],
      [
        "%",
        "10"
      ],
      [
        "naphthal",
        "en"
      ],
      [
        "5",
        "9"
      ],
      [
        "propano",
        "yl]amino]"
      ],
      [
        "tri",
        "methyl"
      ],
      [
        "phenyl)",
        "methyl]"
      ],
      [
        "-4-",
        "("
      ],
      [
        "-1,3-",
        "di"
      ],
      [
        "+",
        "]"
      ],
      [
        "-5-",
        "oxo"
      ],
      [
        "benzo",
        "di"
      ],
      [
        "2-",
        "dimethyl"
      ],
      [
        "ethan",
        "one"
      ],
      [
        "2-",
        "("
      ],
      [
        "+",
        "1]"
      ],
      [
        "spiro",
        "["
      ],
      [
        "C",
        "6"
      ],
      [
        "6",
        "H3"
      ],
      [
        "oxa",
        "diazol"
      ],
      [
        "9",
        ","
      ],
      [
        "[=Ring",
        "2]"
      ],
      [
        "oxol",
        "an"
      ],
      [
        "H3",
        "5"
      ],
      [
        "[(",
        "E)"
      ],
      [
        "-2,",
        "4-di"
      ],
      [
        "(4-methyl",
        "phenyl)"
      ],
      [
        "Z",
        ")"
      ],
      [
        "but",
        "yl)"
      ],
      [
        "3",
        "."
      ],
      [
        "y",
        "n"
      ],
      [
        "6-",
        "dimethyl"
      ],
      [
        "[",
        "[4-"
      ],
      [
        "[",
        "6-"
      ],
      [
        "u",
        "m"
      ],
      [
        "5",
        "H"
      ],
      [
        "-5-",
        "yl]"
      ],
      [
        "h",
        "12"
      ],
      [
        "de",
        "ca"
      ],
      [
        "sulf",
        "am"
      ],
      [
        "F",
        "4"
      ],
      [
        "-3-",
        "hydroxy"
      ],
      [
        "e",
        "-1-"
      ],
      [
        "6",
        "0"
      ],
      [
        "hex",
        "a"
      ],
      [
        "ane",
        "-1-"
      ],
      [
        "azolo",
        "["
      ],
      [
        "benzo",
        "ate"
      ],
      [
        "sulfam",
        "o"
      ],
      [
        "[(2-",
        "methyl"
      ],
      [
        "thi",
        "a"
      ],
      [
        "butano",
        "ic acid"
      ],
      [
        "chloro",
        "-4-"
      ],
      [
        "-N-",
        "("
      ],
      [
        "[",
        "[(2"
      ],
      [
        "-",
        "9-"
      ],
      [
        "phenyl]",
        "methyl]"
      ],
      [
        "H3",
        "6"
      ],
      [
        "r",
        "2"
      ],
      [
        "N-",
        "(3-"
      ],
      [
        "6",
        "1"
      ],
      [
        "ethan",
        "amine"
      ],
      [
        "thiophen",
        "-2-yl)"
      ],
      [
        "(4-",
        "methoxyphenyl)"
      ],
      [
        "H",
        "4"
      ],
      [
        "[(",
        "2,"
      ],
      [
        "ethyl",
        "amino)"
      ],
      [
        "(4-",
        "fluorophenyl)"
      ],
      [
        "benzene",
        "sulfonamide"
      ],
      [
        "c",
        "16"
      ],
      [
        "-",
        "di"
      ],
      [
        "-3-",
        "oxo"
      ],
      [
        "hyd",
        "r"
      ],
      [
        "chloro",
        "-2-"
      ],
      [
        "2-",
        "[[2-"
      ],
      [
        "pyrazol",
        "-4-yl)"
      ],
      [
        "piperidin",
        "-1-yl)"
      ],
      [
        "c",
        "15"
      ],
      [
        "-N-",
        "(2-"
      ],
      [
        "[",
        "[2-("
      ],
      [
        "3",
        "]"
      ],
      [
        "dimethyl",
        "amino)"
      ],
      [
        "-1-",
        "benzo"
      ],
      [
        "-2-yl",
        "methyl)"
      ],
      [
        "c",
        "17"
      ],
      [
        "i",
        "um"
      ],
      [
        "C",
        "31"
      ],
      [
        "methoxy",
        "]"
      ],
      [
        "-6-",
        "methyl"
      ],
      [
        "[(",
        "3"
      ],
      [
        "N-",
        "("
      ],
      [
        "-2-",
        "phenyl"
      ],
      [
        "6",
        "2"
      ],
      [
        "tetra",
        "hydro"
      ],
      [
        "acet",
        "ate"
      ],
      [
        "4-",
        "dimethyl"
      ],
      [
        "(4-",
        "chlorophenyl)"
      ],
      [
        "azin",
        "e"
      ],
      [
        "N",
        "8"
      ],
      [
        "(4-",
        "bromo"
      ],
      [
        "hydro-",
        "2H-"
      ],
      [
        "-2-",
        "carboxylic acid"
      ],
      [
        "2.",
        "1]"
      ],
      [
        "nitro",
        "phenyl)"
      ],
      [
        "5,6,",
        "7,"
      ],
      [
        "ro",
        "m"
      ],
      [
        "ch",
        "rom"
      ],
      [
        "3",
        "H2"
      ],
      [
        "-N-",
        "[2-"
      ],
      [
        "c",
        "14"
      ],
      [
        "6",
        "3"
      ],
      [
        "c",
        "19"
      ],
      [
        "c",
        "18"
      ],
      [
        "methan",
        "amine"
      ],
      [
        "R,",
        "4"
      ],
      [
        "(2",
        "S)-2-"
      ],
      [
        "hydroxy",
        "methyl)"
      ],
      [
        "methyl",
        "-"
      ],
      [
        "ph",
        "os"
      ],
      [
        "phos",
        "ph"
      ],
      [
        "e",
        "-5-"
      ],
      [
        "ethoxy",
        "]"
      ],
      [
        "oct",
        "a"
      ],
      [
        "-4-",
        "carboxamide"
      ],
      [
        "7-",
        "di"
      ],
      [
        "morpholin",
        "-4-yl"
      ],
      [
        "l",
        "3"
      ],
      [
        "benzo",
        "thiazol"
      ],
      [
        "6",
        "4"
      ],
      [
        "cyclohex",
        "yl)"
      ],
      [
        "benzo",
        "ic acid"
      ],
      [
        "pyrim",
        "idine"
      ],
      [
        "2,",
        "2-"
      ],
      [
        "pyrrolidin",
        "-1-yl]"
      ],
      [
        "R)",
        "-2-"
      ],
      [
        "3,",
        "4-di"
      ],
      [
        "pentano",
        "ic acid"
      ],
      [
        "H3",
        "7"
      ],
      [
        "phenoxy",
        "]"
      ],
      [
        "oxy",
        "]"
      ],
      [
        "h",
        "13"
      ],
      [
        "C",
        "32"
      ],
      [
        "thi",
        "eno"
      ],
      [
        "(",
        "E)"
      ],
      [
        "acet",
        "yl"
      ],
      [
        "[",
        "[5-"
      ],
      [
        "11",
        ","
      ],
      [
        "cyclohex",
        "yl"
      ],
      [
        "c",
        "20"
      ],
      [
        "ac",
        "y"
      ],
      [
        "-1-",
        "phenyl"
      ],
      [
        "io",
        "do"
      ],
      [
        "acy",
        "clo"
      ],
      [
        "hydroxy",
        "phenyl)"
      ],
      [
        "6",
        "5"
      ],
      [
        "-",
        "3"
      ],
      [
        "N-",
        "[2-("
      ],
      [
        "aza",
        "bicyclo["
      ],
      [
        "10",
        ","
      ],
      [
        "d]",
        "pyrimidin"
      ],
      [
        "amino",
        "-1-"
      ],
      [
        "e-4-",
        "carboxamide"
      ],
      [
        "trifluoromethyl)",
        "phenyl]"
      ],
      [
        ".0",
        "2,"
      ],
      [
        "-1,",
        "4-"
      ],
      [
        "-1-",
        "one"
      ],
      [
        "c",
        "13"
      ],
      [
        "-N",
        ","
      ],
      [
        "[(2-",
        "amino"
      ],
      [
        "N-",
        "[3-"
      ],
      [
        "6",
        "6"
      ],
      [
        "S",
        "3"
      ],
      [
        "piperazin",
        "-1-yl)"
      ],
      [
        "-1,2,4-",
        "oxadiazol"
      ],
      [
        "-1,",
        "3,4-"
      ],
      [
        "iso",
        "quinolin"
      ],
      [
        "-",
        "5,"
      ],
      [
        "-1-",
        "amine"
      ],
      [
        "[",
        "[3-"
      ],
      [
        "propan",
        "e"
      ],
      [
        "S,",
        "5"
      ],
      [
        "4",
        "."
      ],
      [
        "H3",
        "8"
      ],
      [
        "cyclopent",
        "a"
      ],
      [
        "[",
        "3,"
      ],
      [
        "10",
        "-"
      ],
      [
        "carbon",
        "itrile"
      ],
      [
        "2-",
        "[2-"
      ],
      [
        "5",
        "]"
      ],
      [
        "piperidin",
        "-4-yl"
      ],
      [
        "en",
        "yl]"
      ],
      [
        "6",
        "7"
      ],
      [
        "R,",
        "3"
      ],
      [
        "acyclo",
        "["
      ],
      [
        "thiophen",
        "-2-yl"
      ],
      [
        "(1-",
        "methyl"
      ],
      [
        "propano",
        "ate"
      ],
      [
        "N-",
        "[4-"
      ],
      [
        "an",
        "-3-yl)"
      ],
      [
        "indol",
        "e"
      ],
      [
        "carbon",
        "yl]"
      ],
      [
        "-",
        "6,"
      ],
      [
        "c",
        "21"
      ],
      [
        "am",
        "ido"
      ],
      [
        "n",
        "on"
      ],
      [
        "(3,",
        "4-di"
      ],
      [
        "e",
        "a"
      ],
      [
        "ur",
        "ea"
      ],
      [
        "thia",
        "diazol"
      ],
      [
        "-1,2-",
        "oxazol"
      ],
      [
        "carb",
        "oxy"
      ],
      [
        "4",
        "H"
      ],
      [
        "pyridin",
        "-2-yl)"
      ],
      [
        "6",
        "8"
      ],
      [
        "acetamide",
        ";hydrochloride"
      ],
      [
        "-1,",
        "4-di"
      ],
      [
        "(3-",
        "methoxy"
      ],
      [
        "carbamo",
        "yl]"
      ],
      [
        "-4-",
        "amine"
      ],
      [
        "12",
        ","
      ],
      [
        "2-",
        "methyl"
      ],
      [
        "-1-",
        "methyl"
      ],
      [
        "-6-",
        "("
      ],
      [
        "hyd",
        "ropyr"
      ],
      [
        "on",
        "itrile"
      ],
      [
        "R,",
        "6"
      ],
      [
        "pentano",
        "yl]amino]"
      ],
      [
        "chloro",
        "-N-"
      ],
      [
        "[1,",
        "2-"
      ],
      [
        "butano",
        "yl]amino]"
      ],
      [
        "(2,",
        "3-di"
      ],
      [
        "6",
        "9"
      ],
      [
        "anilin",
        "e"
      ],
      [
        "-N",
        "'-"
      ],
      [
        "propan-1-",
        "one"
      ],
      [
        "cyclopenta",
        "["
      ],
      [
        "(",
        "3"
      ],
      [
        "N-",
        "(1-"
      ],
      [
        "R,",
        "5"
      ],
      [
        "H3",
        "9"
      ],
      [
        "[(",
        "1"
      ],
      [
        "carbamo",
        "thio"
      ],
      [
        "fluorophenyl)",
        "methyl]"
      ],
      [
        "-6-",
        "yl)"
      ],
      [
        "[(",
        "1S"
      ],
      [
        "but",
        "yl]"
      ],
      [
        "7",
        "0"
      ],
      [
        "F",
        "6"
      ],
      [
        "H",
        "5"
      ],
      [
        "-1,",
        "3,"
      ],
      [
        "pyrrol",
        "e"
      ],
      [
        "S,",
        "3"
      ],
      [
        "[(4-",
        "methyl"
      ],
      [
        "N",
        ","
      ],
      [
        "s",
        "il"
      ],
      [
        "[1,",
        "2,"
      ],
      [
        "N",
        "'-"
      ],
      [
        "-1-oxo",
        "propan-2-yl]"
      ],
      [
        "S,",
        "4"
      ],
      [
        "2",
        "H2"
      ],
      [
        "prop-2-en",
        "o"
      ],
      [
        "methylidene",
        "]"
      ],
      [
        "-4-",
        "methoxy"
      ],
      [
        "-N-",
        "[2-("
      ],
      [
        "butan",
        "-2-yl]"
      ],
      [
        "c",
        "22"
      ],
      [
        "methoxyphenyl)",
        "methyl]"
      ],
      [
        "C",
        "33"
      ],
      [
        "-1-",
        "("
      ],
      [
        "11",
        "-"
      ],
      [
        "O",
        "9"
      ],
      [
        "aza",
        "spiro["
      ],
      [
        "propan-1-",
        "amine"
      ],
      [
        "N-",
        "methyl"
      ],
      [
        "imid",
        "azo"
      ],
      [
        "tri",
        "cyclo["
      ],
      [
        "ethyl",
        "amino]"
      ],
      [
        "furan",
        "-2-yl)"
      ],
      [
        "7",
        "1"
      ],
      [
        "4,5-",
        "tri"
      ],
      [
        "2,2-",
        "trifluoro"
      ],
      [
        "-4-",
        "one"
      ],
      [
        "[1,2,",
        "4]"
      ],
      [
        "carbon",
        "yl]amino]"
      ],
      [
        "in",
        "e"
      ],
      [
        "-3-",
        "(4-"
      ],
      [
        "(2-",
        "amino"
      ],
      [
        "2-",
        "[4-"
      ],
      [
        "c",
        "12"
      ],
      [
        "7",
        "2"
      ],
      [
        "-2,3-di",
        "hydro"
      ],
      [
        "ropyr",
        "idin"
      ],
      [
        "-3-(",
        "1H-"
      ],
      [
        "-1,3-",
        "oxazol"
      ],
      [
        "cyclopent",
        "yl"
      ],
      [
        "pyr",
        "id"
      ],
      [
        "R)",
        "-1-"
      ],
      [
        "-1,2-",
        "di"
      ],
      [
        "(2,",
        "4-di"
      ],
      [
        "phenyl)",
        "-2-"
      ],
      [
        "-3-",
        "methoxy"
      ],
      [
        ",",
        "2"
      ],
      [
        "hex",
        "ano"
      ],
      [
        "propanamide",
        ";hydrochloride"
      ],
      [
        "t",
        "11"
      ],
      [
        "S)",
        "-1-"
      ],
      [
        "pyridin",
        "-3-yl)"
      ],
      [
        "benzimidazol",
        "-2-yl]"
      ],
      [
        "pyrrolidin",
        "-1-yl)"
      ],
      [
        "t",
        "12"
      ],
      [
        "-3-",
        "carboxylic acid"
      ],
      [
        "ane-1-",
        "carboxamide"
      ],
      [
        "7",
        "3"
      ],
      [
        "indol",
        "-3-yl)"
      ],
      [
        "tert-butyl ",
        "N-[1-"
      ],
      [
        "imid",
        "amide"
      ],
      [
        "1",
        "("
      ],
      [
        "di",
        "oxo"
      ],
      [
        "-1-",
        "ol"
      ],
      [
        "pyrazol",
        "-3-yl)"
      ],
      [
        "benzo",
        "yl)"
      ],
      [
        "H",
        "40"
      ],
      [
        "C",
        "34"
      ],
      [
        "carbon",
        "yl)amino]"
      ],
      [
        "-1,3-",
        "benzothiazol"
      ],
      [
        "bromo",
        "-4-"
      ],
      [
        "benzamide",
        ";hydrochloride"
      ],
      [
        "S,",
        "6"
      ],
      [
        "piperidine",
        "-1-"
      ],
      [
        "thieno",
        "[2,3-"
      ],
      [
        "azep",
        "an"
      ],
      [
        "7",
        "H3"
      ],
      [
        "pyrrolidin",
        "-1-yl"
      ],
      [
        "7",
        "4"
      ],
      [
        "am",
        "ethyl"
      ],
      [
        "-3-",
        "carboxylate"
      ],
      [
        "3-",
        "amino-N-"
      ],
      [
        "c",
        "23"
      ],
      [
        "-5-",
        "yl"
      ],
      [
        "t",
        "13"
      ],
      [
        "pyridin",
        "-3-yl"
      ],
      [
        "benz",
        "onitrile"
      ],
      [
        "N",
        "+1]"
      ],
      [
        "-2,",
        "2-dimethyl"
      ],
      [
        "[1,",
        "3]"
      ],
      [
        "t",
        "10"
      ],
      [
        "methan",
        "ol"
      ],
      [
        "[(2-methyl",
        "propan-2-yl)"
      ],
      [
        "[1-",
        "("
      ],
      [
        "(1,",
        "3-"
      ],
      [
        "bromo",
        "-2-"
      ],
      [
        "7",
        "5"
      ],
      [
        "[1,2,4]",
        "tri"
      ],
      [
        "[",
        "["
      ],
      [
        "quin",
        "azol"
      ],
      [
        "-2-yl)",
        "methyl]"
      ],
      [
        "pyridin",
        "-2-yl]"
      ],
      [
        "-2-",
        "hydroxy"
      ],
      [
        "hept",
        "an"
      ],
      [
        "cyclohex",
        "yl]"
      ],
      [
        "cyclo",
        "butyl"
      ],
      [
        "[=",
        "N+1]"
      ],
      [
        "H",
        "41"
      ],
      [
        "(2-",
        "hydroxy"
      ],
      [
        "oxy",
        "phenyl)"
      ],
      [
        "4-",
        "("
      ],
      [
        "7",
        "6"
      ],
      [
        "[1,2-",
        "a]"
      ],
      [
        "3,",
        "4,"
      ],
      [
        "thi",
        "ol"
      ],
      [
        "piperidin",
        "-4-yl]"
      ],
      [
        "h",
        "14"
      ],
      [
        "-2,",
        "5-di"
      ],
      [
        "13",
        ","
      ],
      [
        "(4-",
        "amino"
      ],
      [
        "sulfamo",
        "yl)"
      ],
      [
        "[3,",
        "2-"
      ],
      [
        "-1,2,4-triazol",
        "-3-yl]"
      ],
      [
        "a,",
        "4,"
      ],
      [
        "15",
        ","
      ],
      [
        "fluoro",
        "-4-"
      ],
      [
        "[1,",
        "5-"
      ],
      [
        "acet",
        "yl]"
      ],
      [
        "prop-2-en",
        "yl"
      ],
      [
        "tetr",
        "azol"
      ],
      [
        "quinolin",
        "e"
      ],
      [
        "3,",
        "3-"
      ],
      [
        "7",
        "7"
      ],
      [
        "pyr",
        "azin"
      ],
      [
        "-3-",
        "amine"
      ],
      [
        "methanone",
        ";hydrochloride"
      ],
      [
        "-N-",
        "ethyl"
      ],
      [
        "14",
        ","
      ],
      [
        "-4-methyl",
        "sulfanyl"
      ],
      [
        "difluoro",
        "methyl)"
      ],
      [
        "[",
        "[4-("
      ],
      [
        "t",
        "14"
      ],
      [
        "g",
        "u"
      ],
      [
        "an",
        "idine"
      ],
      [
        "gu",
        "anidine"
      ],
      [
        "4",
        "H-"
      ],
      [
        "anilino",
        "]"
      ],
      [
        "amino",
        "-5-"
      ],
      [
        "d",
        "ide"
      ],
      [
        "N-",
        "ethyl"
      ],
      [
        "benzodi",
        "ox"
      ],
      [
        "ethan",
        "ol"
      ],
      [
        "F",
        "5"
      ],
      [
        "-1-benzo",
        "furan"
      ],
      [
        "o",
        "r"
      ],
      [
        "1-",
        "[2-"
      ],
      [
        "carbox",
        "imidamide"
      ],
      [
        "benzodi",
        "oxol"
      ],
      [
        "idene",
        "]"
      ],
      [
        "7",
        "8"
      ],
      [
        "pyridin",
        "-3-yl]"
      ],
      [
        "butan",
        "-2-yl"
      ],
      [
        "pyridin",
        "-2-yl"
      ],
      [
        "hex",
        "an"
      ],
      [
        "[n",
        "+]"
      ],
      [
        "13",
        "-"
      ],
      [
        "pyrrolidin",
        "-3-yl"
      ],
      [
        "chrom",
        "en"
      ],
      [
        "[1,5-",
        "a]"
      ],
      [
        "prop",
        "oxy)"
      ],
      [
        "7",
        "a-"
      ],
      [
        "in",
        "o"
      ],
      [
        "t",
        "9"
      ],
      [
        "pyrid",
        "azin"
      ],
      [
        "-2-",
        "ol"
      ],
      [
        "(3-",
        "amino"
      ],
      [
        "7",
        "9"
      ],
      [
        "-1,3,4-",
        "thiadiazol"
      ],
      [
        "1,",
        "3-"
      ],
      [
        "azabicyclo[",
        "3."
      ],
      [
        "c",
        "11"
      ],
      [
        "-2-",
        "(4-"
      ],
      [
        "io",
        "dide"
      ],
      [
        "piperidine",
        "-4-carboxamide"
      ],
      [
        "-2-",
        "carboxylate"
      ],
      [
        "pent",
        "a"
      ],
      [
        "-2,",
        "6-di"
      ],
      [
        "-2-oxoethyl]",
        "-"
      ],
      [
        "H",
        "42"
      ],
      [
        "(2-",
        "oxo"
      ],
      [
        ";",
        "hydro"
      ],
      [
        "piperidin",
        "-1-yl"
      ],
      [
        "-3,",
        "5-di"
      ],
      [
        ".0",
        ".02,"
      ],
      [
        "12",
        "-"
      ],
      [
        "tetra",
        "hydro-"
      ],
      [
        "-N-",
        "(3-"
      ],
      [
        "(2-",
        "phenyl"
      ],
      [
        "aza",
        "tricyclo["
      ],
      [
        "8",
        "0"
      ],
      [
        "bromo",
        "-5-"
      ],
      [
        "c",
        "24"
      ],
      [
        "e",
        "-3-carboxamide"
      ],
      [
        "-2-carboxamide",
        ";hydrochloride"
      ],
      [
        "(2-methyl",
        "propyl)"
      ],
      [
        "quinazol",
        "in"
      ],
      [
        "4",
        "a,"
      ],
      [
        "piperazin",
        "e-1-"
      ],
      [
        "chlorophenyl)",
        "methyl]"
      ],
      [
        "1-",
        "("
      ],
      [
        "-N-",
        "propyl"
      ],
      [
        "chloro",
        "-5-"
      ],
      [
        "1-",
        "dioxo"
      ],
      [
        "N-(3-",
        "amino"
      ],
      [
        "3,",
        "5-di"
      ],
      [
        "carbamothio",
        "yl]"
      ],
      [
        "sulfon",
        "yl)"
      ],
      [
        "-4-",
        "phenyl"
      ],
      [
        "-4,",
        "5-di"
      ],
      [
        "azolo",
        "[1,5-a]"
      ],
      [
        "t",
        "15"
      ],
      [
        "yl]",
        "oxy"
      ],
      [
        "8",
        "1"
      ],
      [
        "carbamo",
        "yl)"
      ],
      [
        "(4-",
        "chloro"
      ],
      [
        "azolo[",
        "3,4-"
      ],
      [
        "benzo",
        "yl)amino]"
      ],
      [
        "(",
        "1"
      ],
      [
        "C",
        "35"
      ],
      [
        "H",
        "43"
      ],
      [
        "2-",
        "amino-N-"
      ],
      [
        "eth",
        "yn"
      ],
      [
        "methyl",
        "sulfanyl]"
      ],
      [
        "[",
        "3,4-"
      ],
      [
        "az",
        "et"
      ],
      [
        ";hydro",
        "iodide"
      ],
      [
        "butanamide",
        ";hydrochloride"
      ],
      [
        "methyl",
        "-2-"
      ],
      [
        "C",
        "36"
      ],
      [
[...]
